<unk>	0
<s>	0
</s>	0
▁	-3.23267
.	-3.44376
..	-4.35967
이	-4.42178
▁영화	-4.55895
...	-4.60112
의	-4.68391
가	-4.69461
도	-4.76155
는	-4.83175
,	-4.89169
을	-4.99108
에	-5.07127
고	-5.16821
다	-5.20558
은	-5.22246
지	-5.28369
?	-5.2892
한	-5.48183
를	-5.50951
▁너무	-5.51493
만	-5.55385
!	-5.56584
▁정말	-5.64619
▁이	-5.67165
로	-5.70787
나	-5.79732
게	-5.84545
▁진짜	-5.86053
~	-5.90205
영화	-5.92806
과	-5.97562
기	-6.09912
라	-6.12946
으로	-6.13454
하고	-6.1635
인	-6.1768
점	-6.19697
어	-6.20188
서	-6.21189
리	-6.22007
에서	-6.24996
▁그	-6.26203
▁잘	-6.27316
▁안	-6.28594
아	-6.29566
네	-6.32045
와	-6.32104
▁왜	-6.36003
들	-6.36278
▁1	-6.3807
▁더	-6.39216
▁다	-6.39559
▁수	-6.39638
!!	-6.40094
▁이런	-6.41763
하는	-6.44823
....	-6.46702
요	-6.47066
▁아	-6.48187
해	-6.48588
거	-6.52429
▁그냥	-6.53508
자	-6.59021
▁드라마	-6.6098
네요	-6.61098
면	-6.62858
수	-6.65695
▁본	-6.66249
대	-6.66833
▁보고	-6.67986
▁10	-6.67998
스	-6.70027
시	-6.71771
지만	-6.72559
▁연기	-6.72594
음	-6.74338
니	-6.74713
▁평점	-6.75005
야	-6.76537
▁영화를	-6.7867
▁한	-6.80237
▁좀	-6.80534
▁내	-6.80639
일	-6.81469
함	-6.81631
하게	-6.85596
사	-6.869
이다	-6.88644
▁쓰레기	-6.90762
▁참	-6.91154
진	-6.91504
▁봤는데	-6.92438
▁없는	-6.93924
데	-6.94426
▁ᄏᄏ	-6.94662
▁스토리	-6.95415
보다	-6.95824
▁이거	-6.97123
▁최고의	-6.97728
하다	-6.97758
▁영화는	-6.97938
▁못	-6.98229
▁영화가	-6.98476
할	-6.98596
까지	-6.98758
미	-6.99233
임	-6.99353
▁내가	-6.99441
▁완전	-7.00202
여	-7.00296
하	-7.0055
주	-7.00775
▁이건	-7.00786
정	-7.00887
▁없다	-7.01262
▁최고	-7.01743
우	-7.01897
▁2	-7.02066
구	-7.02194
안	-7.02505
▁있는	-7.03091
들이	-7.0379
▁개	-7.04703
▁좋은	-7.06128
!!!	-7.06478
듯	-7.06506
는데	-7.06851
ᄏᄏ	-7.06954
드	-7.07445
해서	-7.07851
성	-7.09957
▁이렇게	-7.11635
▁보는	-7.1192
냐	-7.1225
▁다시	-7.12661
▁것	-7.13205
▁이게	-7.13215
던	-7.13767
건	-7.13773
보	-7.14013
▁3	-7.14712
^^	-7.1502
장	-7.1512
▁나	-7.1521
신	-7.15765
▁난	-7.18014
상	-7.18806
랑	-7.18892
치	-7.19133
중	-7.20426
▁말	-7.20858
적	-7.20931
ᄏ	-7.217
▁보	-7.21928
전	-7.23365
보고	-7.23956
▁평점이	-7.26285
▁많이	-7.26521
▁뭐	-7.28017
마	-7.28555
~~	-7.29097
▁넘	-7.30252
인데	-7.30973
개	-7.31253
1	-7.31267
▁역시	-7.32478
▁작품	-7.32824
▁지	-7.32867
원	-7.33005
오	-7.33657
▁그리고	-7.33986
부	-7.34193
세	-7.3535
분	-7.35439
질	-7.36101
▁재밌게	-7.3653
비	-7.36583
년	-7.36662
▁별로	-7.37744
▁생각	-7.38212
▁볼	-7.38383
려	-7.38445
▁전	-7.3849
;;	-7.38511
▁저	-7.3861
했다	-7.39466
▁또	-7.39824
▁마지막	-7.40216
트	-7.40838
그	-7.40989
2	-7.41153
▁재미	-7.41569
??	-7.41901
것	-7.42393
▁오	-7.42442
▁하는	-7.42948
'	-7.43788
화	-7.44548
내	-7.44944
▁감동	-7.45537
진짜	-7.46039
말	-7.46347
같은	-7.46606
습니다	-7.47334
▁꼭	-7.47544
하지	-7.47569
히	-7.47605
라고	-7.48036
적인	-7.48097
▁아깝다	-7.48428
때	-7.48615
▁하	-7.49227
급	-7.49295
▁없고	-7.50216
▁가장	-7.50427
입니다	-7.50521
물	-7.50756
▁ᄏᄏᄏ	-7.51826
▁주	-7.52139
▁하나	-7.52748
▁무슨	-7.52781
소	-7.53
용	-7.5324
▁감독	-7.54047
▁무	-7.54908
)	-7.55052
▁시간	-7.55056
▁기대	-7.55566
라는	-7.55635
▁이야기	-7.55728
▁별	-7.55933
▁액션	-7.56507
있는	-7.56538
란	-7.56654
더	-7.56977
▁보면	-7.57551
제	-7.5771
러	-7.5855
ᅲᅲ	-7.58584
좀	-7.59332
된	-7.59679
유	-7.59963
▁다른	-7.60422
선	-7.60578
▁지금	-7.60968
▁아니	-7.61145
이나	-7.61307
너무	-7.61465
▁만든	-7.61747
씨	-7.63298
ᄏᄏᄏ	-7.63305
어요	-7.6366
▁사	-7.63754
영	-7.64422
▁한국	-7.65097
▁할	-7.65169
걸	-7.65541
조	-7.65904
드라마	-7.66449
▁명작	-7.66507
줄	-7.66661
▁중	-7.67077
무	-7.67124
에게	-7.67133
▁조	-7.67277
3	-7.67802
편	-7.67937
감	-7.68108
;	-7.68489
부터	-7.68511
▁사랑	-7.68639
긴	-7.693
없는	-7.69484
처럼	-7.69632
▁ᄏ	-7.69648
▁내용	-7.70303
▁김	-7.70674
모	-7.71011
▁말이	-7.71044
식	-7.71379
정말	-7.71551
▁ᅲᅲ	-7.71954
▁비	-7.71962
군	-7.72316
▁미	-7.72524
▁처음	-7.73539
당	-7.73663
심	-7.73667
ᅲ	-7.73887
본	-7.74038
연	-7.74569
▁같은	-7.74892
▁대	-7.75017
▁영화다	-7.75415
▁유	-7.75443
▁연출	-7.75855
바	-7.76109
동	-7.76137
▁끝까지	-7.76569
명	-7.7676
▁'	-7.76889
▁정	-7.77091
▁배우	-7.77169
▁두	-7.77287
으면	-7.77303
▁느낌	-7.77566
▁돈	-7.78405
호	-7.79459
남	-7.79888
▁ᅳᅳ	-7.80356
한다	-7.80577
▁때	-7.80624
난	-7.80651
▁와	-7.80701
작	-7.80864
타	-7.81073
(	-7.81148
들의	-7.81148
살	-7.81447
▁솔직히	-7.81866
울	-7.82017
▁전혀	-7.82065
▁짱	-7.82158
며	-7.82161
디	-7.82872
워	-7.83393
운	-7.83427
인지	-7.83459
▁하지만	-7.838
죠	-7.83925
단	-7.84235
▁뭔가	-7.84349
위	-7.84463
▁좋다	-7.84954
면서	-7.8496
▁거	-7.85031
▁일본	-7.8512
▁같다	-7.85232
▁대한	-7.85405
희	-7.85405
▁봤다	-7.85734
▁있다	-7.85759
▁일	-7.85865
▁아주	-7.86276
되는	-7.86452
▁제	-7.86493
▁재밌다	-7.86716
합니다	-7.87266
두	-7.87585
▁해	-7.87651
▁기	-7.88456
길	-7.88886
ᅳᅳ	-7.88893
크	-7.8945
노	-7.89461
▁굿	-7.89475
래	-7.90128
이랑	-7.90573
▁봐도	-7.90809
▁구	-7.91271
▁사람	-7.91494
▁많은	-7.91943
린	-7.91996
▁마	-7.92018
때문에	-7.92276
재	-7.92343
잘	-7.92477
▁알	-7.92764
▁ᄒᄒ	-7.92903
▁신	-7.93168
하면	-7.93363
준	-7.93381
류	-7.93461
▁최악	-7.93723
하지만	-7.94026
루	-7.94428
▁어	-7.94434
▁모두	-7.94511
이라	-7.94835
인가	-7.95281
레	-7.95461
▁좋아	-7.95536
판	-7.95698
▁재미있게	-7.95752
▁여자	-7.95802
생	-7.96131
▁어떻게	-7.96237
▁자	-7.9641
▁내내	-7.96944
▁대박	-7.97174
▁계속	-7.97296
▁이걸	-7.97297
,,	-7.97363
▁나오는	-7.97397
프	-7.97527
▁그런	-7.97538
▁후	-7.98355
르	-7.98381
▁내용이	-7.98656
▁코미디	-7.98693
없이	-7.98708
▁않고	-7.98739
하나	-7.98916
▁줄	-7.98955
-	-7.99331
저	-7.99485
연기	-7.99675
박	-7.99682
▁이영화	-7.99866
경	-7.99879
간	-7.99993
▁보기	-7.99996
▁최악의	-8.00218
▁배우들	-8.00527
▁아니라	-8.00565
▁소	-8.00896
지는	-8.01288
민	-8.01737
엔	-8.01975
들은	-8.02024
▁4	-8.02115
▁아닌	-8.02317
한테	-8.02479
했던	-8.02629
날	-8.03288
었다	-8.03356
▁모든	-8.03771
▁그래도	-8.04653
▁한번	-8.04891
▁주인공	-8.05182
번	-8.05212
후	-8.05262
▁시	-8.05754
파	-8.05918
▁애	-8.06146
▁이상	-8.06306
구나	-8.06416
▁재미없다	-8.0645
▁반	-8.07225
이라는	-8.07317
방	-8.07577
▁아니다	-8.07951
▁딱	-8.08131
▁하고	-8.08235
피	-8.08465
터	-8.08545
점도	-8.08606
애	-8.08647
▁실망	-8.08911
되	-8.09032
▁남자	-8.09385
시간	-8.09467
▁남	-8.09686
발	-8.09823
생각	-8.09864
봤는데	-8.10067
▁아름다운	-8.1024
▁연기가	-8.10254
▁7	-8.10319
든	-8.10644
못	-8.10751
▁이해	-8.10813
지도	-8.10817
▁듯	-8.10852
▁요즘	-8.11147
▁5	-8.11209
▁제일	-8.11249
▁우리	-8.11381
▁만드는	-8.11751
▁모	-8.12278
▁부	-8.12614
10	-8.12666
▁인생	-8.12845
형	-8.12889
하네	-8.12947
▁근데	-8.12977
까	-8.12977
▁않은	-8.13032
▁전개	-8.13256
▁공포	-8.13301
▁애니	-8.13589
▁이제	-8.13614
겨	-8.13687
반	-8.13778
▁되	-8.14213
▁감독이	-8.14699
▁스릴러	-8.15096
회	-8.15257
▁절대	-8.15385
티	-8.15567
국	-8.15581
▁않는	-8.15597
▁연기도	-8.15769
▁음악	-8.15995
▁기억	-8.16118
▁수준	-8.16311
▁제대로	-8.16328
▁욕	-8.16346
▁나는	-8.16436
▁바	-8.16572
ᄒᄒ	-8.16644
▁8	-8.16759
님	-8.17007
이란	-8.17169
▁보다가	-8.17481
하네요	-8.17683
▁장면	-8.17842
림	-8.17862
▁개봉	-8.18007
▁스토리가	-8.18255
▁내용도	-8.18365
겠다	-8.1842
산	-8.189
▁건	-8.1911
키	-8.1942
보면	-8.19435
이고	-8.19469
차	-8.1961
니까	-8.20089
▁아니고	-8.20245
보는	-8.20529
♥	-8.20989
현	-8.21072
하기	-8.21127
▁OO	-8.21252
토	-8.21309
적으로	-8.21458
▁막장	-8.21475
망	-8.2169
▁보다	-8.21722
▁장	-8.21726
배	-8.21734
▁0	-8.21738
▁9	-8.21954
!!!!	-8.21957
즈	-8.21977
태	-8.22141
▁반전	-8.22228
다니	-8.223
공	-8.22308
들을	-8.22335
점이	-8.22598
ᄒ	-8.22859
관	-8.22986
버	-8.23166
▁싶다	-8.23225
▁우	-8.23258
~~~	-8.23377
▁추천	-8.23611
없다	-8.23675
▁끝	-8.24008
o	-8.24311
▁속	-8.24418
▁만들어	-8.24665
카	-8.24799
▁영화라고	-8.2493
▁박	-8.24936
▁표현	-8.25054
다가	-8.2518
▁시간이	-8.25699
년대	-8.25834
▁때문에	-8.25904
▁강	-8.26215
▁아직도	-8.26297
왜	-8.26584
따	-8.26794
▁재밌	-8.26871
▁영화의	-8.27097
▁여운이	-8.27215
▁아까운	-8.27343
양	-8.27375
▁정도	-8.27681
건지	-8.2802
▁주는	-8.28025
속	-8.28267
▁걸	-8.28293
▁차라리	-8.28326
것도	-8.28417
짱	-8.28421
극	-8.28435
▁재미도	-8.28969
▁나름	-8.2897
▁스	-8.2899
4	-8.29126
▁사람들	-8.29129
어서	-8.29221
""	-8.29248
종	-8.29311
▁파	-8.29477
▁심	-8.29669
▁재밌어요	-8.29746
으	-8.2983
했는데	-8.29877
/	-8.29932
▁엄청	-8.30072
▁나온	-8.30143
▁좋았다	-8.30189
라도	-8.30504
▁특히	-8.30535
▁영화입니다	-8.30564
▁세	-8.30643
ᅳ	-8.30773
▁피	-8.30777
▁남는	-8.30802
▁걍	-8.30813
▁되는	-8.30977
달	-8.3109
▁나도	-8.31108
▁도대체	-8.31229
▁눈	-8.31245
이라고	-8.31256
▁미국	-8.31391
5	-8.31446
▁진심	-8.31494
죽	-8.31499
▁보면서	-8.31506
뿐	-8.3158
▁몇	-8.3164
▁조금	-8.31682
력	-8.31931
▁스토리도	-8.32944
금	-8.32969
▁우리나라	-8.33026
▁망	-8.33206
점은	-8.33349
▁대사	-8.33479
▁오랜만에	-8.33906
▁감독의	-8.34031
참	-8.34308
▁눈물	-8.34386
▁불	-8.34669
정도	-8.34772
▁캐릭터	-8.34784
▁배	-8.34977
▁멋진	-8.35009
인듯	-8.35018
석	-8.35051
▁마지막에	-8.35325
평점	-8.35393
▁뻔한	-8.35845
▁공포영화	-8.35882
▁원	-8.36014
▁이해가	-8.36077
ᅮᅮ	-8.36122
해요	-8.36546
포	-8.36663
▁결말	-8.37029
???	-8.37292
▁봤습니다	-8.37652
▁없음	-8.37831
는게	-8.37998
▁시리즈	-8.38023
져	-8.38032
▁좋아하는	-8.38048
▁동	-8.38154
문	-8.38283
스토리	-8.38408
▁ᄏᄏᄏᄏ	-8.38503
▁좋고	-8.38594
해도	-8.38707
▁봤던	-8.38719
▁진	-8.38751
▁노	-8.3885
밖에	-8.38851
▁시작	-8.39013
▁B	-8.39244
▁쓰	-8.39461
체	-8.3951
매	-8.39585
▁생각이	-8.39623
는거	-8.39664
▁수작	-8.39793
집	-8.39843
▁영	-8.39934
;;;	-8.39945
▁울	-8.40206
ᄏᄏᄏᄏ	-8.40273
볼	-8.40369
이런	-8.4038
움	-8.40677
▁막	-8.40682
▁어떤	-8.40723
▁20	-8.40809
사람	-8.40863
▁지루하고	-8.40896
▁OOO	-8.40899
배우	-8.4098
▁연	-8.41039
▁지루한	-8.41186
▁공감	-8.41344
더라	-8.41391
▁지루함	-8.41398
장면	-8.41606
7	-8.41939
넘	-8.41945
실	-8.42285
릴	-8.42308
▁싶은	-8.42384
▁영화에	-8.42424
만큼	-8.42463
▁가슴	-8.4249
쳐	-8.42557
▁재	-8.42569
던데	-8.42685
려고	-8.43041
▁공	-8.43188
▁초	-8.43352
▁원작	-8.43545
그냥	-8.43599
▁오늘	-8.43665
▁재밌는	-8.43708
▁뭘	-8.43809
▁함께	-8.44052
▁ᅲ	-8.44336
▁뭔	-8.44395
계	-8.44476
▁그저	-8.44529
코	-8.4476
▁기분	-8.44957
t	-8.44985
▁될	-8.45097
▁괜찮은	-8.45341
있다	-8.45389
역	-8.4542
▁졸작	-8.45459
하며	-8.45463
▁사람이	-8.45499
▁배우들의	-8.45553
▁최고다	-8.45606
▁없이	-8.46036
등	-8.46228
▁개인적으로	-8.46269
▁큰	-8.46277
중에	-8.46419
었는데	-8.46429
▁^^	-8.46817
▁노래	-8.47029
▁된	-8.47145
▁날	-8.47162
▁알바	-8.47165
탄	-8.47198
▁보는내내	-8.47285
갈	-8.47354
▁나오	-8.47523
d	-8.47576
▁애니메이션	-8.47675
▁못한	-8.47684
▁없	-8.47748
▁재미가	-8.47773
▁영상	-8.47842
▁않	-8.47986
▁얼마나	-8.48152
승	-8.48222
▁억지	-8.48406
▁안되는	-8.49029
▁보세요	-8.49073
는지	-8.49144
불	-8.49155
▁연기력	-8.4916
잼	-8.49292
▁몰입도	-8.49529
였다	-8.49689
▁영화로	-8.49914
▁아무리	-8.49928
▁캐스팅	-8.50046
8	-8.50105
돈	-8.50154
~!	-8.5016
없	-8.50486
▁소재	-8.50556
직	-8.50584
▁성	-8.50597
▁허	-8.50633
,,,	-8.50674
짐	-8.50841
▁인간	-8.5085
▁필요	-8.51364
병	-8.51446
▁여	-8.51545
격	-8.51808
▁후회	-8.51987
▁지루하다	-8.52004
▁발	-8.52109
사랑	-8.52143
구만	-8.52194
▁만들	-8.52337
▁기억에	-8.52409
▁매	-8.52434
▁긴장감	-8.52574
▁"	-8.52606
감동	-8.52933
최고	-8.53115
▁제목	-8.53189
▁시나리오	-8.53221
알	-8.53262
감독	-8.53368
하면서	-8.53691
▁머	-8.54129
꺼	-8.54193
있	-8.54218
▁결국	-8.54595
악	-8.5468
▁매우	-8.54872
▁현실	-8.55049
김	-8.55318
s	-8.55358
e	-8.55463
했음	-8.55463
▁선	-8.55473
예	-8.55478
강	-8.55511
▁제발	-8.55733
▁만화	-8.55793
작품	-8.55919
▁그렇게	-8.55935
스트	-8.55944
▁연기는	-8.55967
▁6	-8.5618
▁살	-8.56523
▁예	-8.56888
▁사실	-8.57249
이지만	-8.57866
녀	-8.58026
잇	-8.58068
기에	-8.58255
6	-8.58399
대로	-8.58768
담	-8.58827
▁아이	-8.58992
버린	-8.59207
주는	-8.59265
▁같이	-8.59688
론	-8.59802
▁좋아요	-8.59837
교	-8.59902
▁모르겠다	-8.60056
액션	-8.60311
▁분위기	-8.60347
▁인	-8.60419
리는	-8.60482
▁것이	-8.6066
▁설정	-8.60745
▁보지	-8.60815
▁코믹	-8.60828
했	-8.60869
봐도	-8.60939
이야	-8.6102
▁봤어요	-8.61055
▁있고	-8.6127
▁강추	-8.61362
하는데	-8.61391
이었다	-8.61398
▁한다	-8.61467
통	-8.61521
봄	-8.61534
이네	-8.61684
증	-8.61896
a	-8.62032
업	-8.62039
▁하나도	-8.62103
쓰레기	-8.6217
권	-8.62254
▁있	-8.62454
▁극장에서	-8.62486
능	-8.62517
▁마음이	-8.62528
▁화	-8.62535
▁위해	-8.62802
▁""	-8.62806
블	-8.62819
▁평	-8.62951
▁맞	-8.63054
봐	-8.63087
▁더빙	-8.63092
▁않는다	-8.63153
너	-8.63271
▁애들	-8.63412
▁한국영화	-8.6344
니다	-8.63555
▁문제	-8.63561
된다	-8.63606
절	-8.63704
▁별점	-8.63707
▁위한	-8.63792
▁준	-8.63956
▁너무나	-8.63964
▁차	-8.64421
입	-8.64511
글	-8.6452
▁없어	-8.64592
▁있을	-8.64751
기는	-8.65068
점을	-8.65267
근	-8.65363
잡	-8.65407
테	-8.65581
않	-8.65588
▁가족	-8.6569
▁재밌음	-8.65867
투	-8.65914
케	-8.65998
보단	-8.66049
초	-8.66113
▁보게	-8.66203
재미	-8.66477
그리고	-8.66482
머	-8.66708
▁총	-8.66808
아니	-8.66982
▁단	-8.67042
기도	-8.6707
군요	-8.67134
ᅮ	-8.67716
▁존나	-8.67767
9	-8.68044
▁들	-8.68084
▁주연	-8.68231
▁길	-8.68372
맨	-8.68573
설	-8.68597
▁너	-8.68652
▁정신	-8.68853
▁봐야	-8.69091
▁행복	-8.69185
▁ᄒ	-8.6919
▁느낌이	-8.69194
▁토	-8.6921
▁그만	-8.69279
▁누가	-8.69345
▁대체	-8.69422
인줄	-8.69894
온	-8.70056
결	-8.70063
학	-8.70099
범	-8.70132
이네요	-8.70156
▁미친	-8.70182
을까	-8.70207
▁모습	-8.70282
▁눈물이	-8.70297
▁매력	-8.7033
▁로맨스	-8.70422
▁적	-8.70433
▁졸	-8.70778
▁내용은	-8.7086
내용	-8.70869
▁훨씬	-8.70981
▁명	-8.71065
다고	-8.71112
락	-8.71482
▁상	-8.71609
뭐	-8.71705
이상	-8.7171
▁알고	-8.71745
끼	-8.72232
▁갈수록	-8.72272
▁죽	-8.72425
창	-8.72434
▁입	-8.72604
▁그나마	-8.72688
▁음	-8.72777
▁영화네요	-8.72781
▁가슴이	-8.72783
수준	-8.73077
점대	-8.73134
언	-8.73367
▁열	-8.73432
건가	-8.73526
▁타	-8.73539
▁장난	-8.73576
▁꽤	-8.73605
▁감동이	-8.73688
▁결말이	-8.73918
해야	-8.74078
막	-8.74094
▁물	-8.74294
▁엔딩	-8.74385
▁기억이	-8.74471
▁없었다	-8.74546
▁ᅮᅮ	-8.74659
▁잼	-8.74692
▁밖에	-8.74793
▁전쟁	-8.74797
에도	-8.74914
거야	-8.75038
영화는	-8.75093
▁재미없음	-8.7543
▁발연기	-8.75604
새	-8.75734
▁엄마	-8.75874
▁재밋	-8.76324
슨	-8.76326
▁마음	-8.76403
▁백	-8.76403
았	-8.76523
▁중국	-8.76583
▁구성	-8.7666
▁보여주는	-8.76838
재밌	-8.76842
난다	-8.77061
여자	-8.77064
보니	-8.77109
▁위	-8.7714
색	-8.77145
▁어설픈	-8.77174
이지	-8.77379
▁그래서	-8.77401
▁유치	-8.77458
▁잡	-8.77572
▁따라	-8.77766
빠	-8.77902
▁재밌고	-8.77973
▁똥	-8.78068
좋아	-8.78093
나는	-8.78133
▁쓰레기영화	-8.7814
▁작가	-8.78194
▁연기를	-8.78206
▁들어	-8.78345
었음	-8.78347
+	-8.78413
▁다큐	-8.78473
환	-8.78526
▁지루	-8.78587
▁예술	-8.78604
▁않다	-8.78702
▁노잼	-8.78735
▁-	-8.78805
풍	-8.78843
소리	-8.79133
▁최	-8.79184
평	-8.79306
씬	-8.7931
완전	-8.79492
▁감	-8.79677
천	-8.79829
기를	-8.79867
▁CG	-8.79899
년이	-8.7995
▁뿐	-8.80254
짜	-8.80282
나요	-8.80332
▁재미있다	-8.80522
▁영화중	-8.80796
▁그러	-8.80824
▁찾아	-8.80857
▁치	-8.80935
▁약	-8.80956
▁딸	-8.80981
▁다들	-8.8109
▁당	-8.81148
다는	-8.81149
▁감동도	-8.81181
쓰	-8.81229
▁아쉽다	-8.81363
▁극	-8.81392
▁걸작	-8.81495
칠	-8.81555
▁시즌	-8.81631
"	-8.82033
플	-8.82087
▁평가	-8.82205
▁간만에	-8.82393
행	-8.82399
짓	-8.8251
▁영화관에서	-8.82577
될	-8.82596
외	-8.82604
▁상황	-8.82812
▁성룡	-8.82857
었던	-8.82864
했지만	-8.82898
▁주고	-8.8322
듯한	-8.83491
▁잔잔한	-8.83517
없고	-8.83678
▁어느	-8.83786
먹	-8.83789
땜에	-8.83823
▁존	-8.83896
>	-8.84193
▁손	-8.84346
▁사람들이	-8.84348
느낌	-8.84693
▁좋은데	-8.84781
순	-8.84781
▁당시	-8.8487
션	-8.849
뻔	-8.84999
이거	-8.85108
이건	-8.8517
▁30	-8.85272
▁전부	-8.8546
▁감동적인	-8.85621
▁맘에	-8.85839
이라도	-8.85844
▁것을	-8.85965
치는	-8.8603
친	-8.8603
싶	-8.86035
▁영화였다	-8.8609
▁베	-8.86163
▁바로	-8.86193
▁재미없	-8.86249
영화를	-8.86411
라서	-8.86445
할때	-8.86504
▁같아요	-8.86819
▁아님	-8.8692
▁의미	-8.87215
▁대해	-8.87337
라면	-8.87436
▁있을까	-8.87522
▁재미있는	-8.87699
레이	-8.87759
습	-8.87765
열	-8.8778
▁생각보다	-8.87783
▁생각을	-8.87929
▁자기	-8.88049
▁진정한	-8.88062
께	-8.88101
▁것도	-8.88324
록	-8.88352
▁상당히	-8.88381
나오는	-8.88383
는건	-8.88405
▁약간	-8.88475
▁글	-8.88519
것이	-8.88534
거지	-8.8854
▁좋	-8.88575
됨	-8.88643
▁올	-8.8865
▁잼있	-8.88657
▁웃	-8.88717
▁갈	-8.88908
▁출연	-8.88962
치고	-8.88976
침	-8.88998
리고	-8.89112
▁배경	-8.89376
향	-8.89536
▁얼굴	-8.89615
진다	-8.8978
▁그대로	-8.89841
▁네이버	-8.90079
또	-8.9011
▁점수	-8.90135
슬	-8.90137
▁자체	-8.90246
▁안되	-8.90271
났	-8.90303
▁준다	-8.90325
▁같은데	-8.9058
기만	-8.90654
▁친구	-8.90742
있고	-8.90893
▁간	-8.90913
낸	-8.9097
▁스토리는	-8.9098
눈	-8.91072
▁웃기	-8.91139
이야기	-8.91271
였음	-8.91292
구요	-8.91353
▁중간에	-8.91384
▁배우들이	-8.9169
▁판타지	-8.91706
수가	-8.91752
▁소리	-8.91825
▁높은	-8.91866
▁감동을	-8.91907
웃	-8.92003
▁여주인공	-8.92022
▁야	-8.92236
▁감성	-8.92314
▁여기	-8.92563
표	-8.92571
▁거의	-8.92618
편이	-8.92728
▁살아	-8.92852
같이	-8.92968
▁재미는	-8.92995
▁정도로	-8.93129
출	-8.93186
▁변	-8.9331
을때	-8.934
▁재미있어요	-8.93439
▁재미없는	-8.93456
▁볼만한	-8.93663
y	-8.93709
▁나와서	-8.93773
▁싶	-8.93781
▁나왔	-8.93865
▁했는데	-8.93889
더니	-8.93908
▁뭐야	-8.93959
▁편	-8.93987
▁아무	-8.93991
ᄋ	-8.94095
▁힘들	-8.94275
척	-8.94618
스러운	-8.94689
▁얘기	-8.94721
▁재밌네요	-8.94774
▁혼자	-8.94896
▁웃음	-8.94922
▁있지만	-8.95034
▁깨	-8.95073
셨	-8.95186
▁봤지만	-8.95375
남자	-8.95394
▁높	-8.9549
▁분	-8.95645
퍼	-8.95715
나오	-8.95832
▁천	-8.95965
에선	-8.95992
어야	-8.95994
조차	-8.96171
▁외	-8.96198
▁영화인데	-8.96274
았다	-8.96378
적이	-8.96466
름	-8.96554
ᄉ	-8.96639
▁생	-8.96641
▁암	-8.96706
기대	-8.9679
▁장르	-8.96796
▁있었	-8.96856
▁이영화를	-8.969
▁이름	-8.97056
▁먹	-8.97072
▁뭐지	-8.97241
백	-8.97272
▁줄거리	-8.9733
▁충격	-8.97594
영화가	-8.97628
▁봐서	-8.97666
복	-8.97691
▁된다	-8.97704
▁마음에	-8.97709
h	-8.97757
햇	-8.98029
▁악	-8.98217
k	-8.9823
▁각본	-8.98311
추	-8.98457
▁굉장히	-8.98483
다면	-8.98557
▁등	-8.9857
▁관객	-8.98671
했습니다	-8.98753
▁감정	-8.98774
욕	-8.98839
▁호	-8.98917
편은	-8.99035
▁갑자기	-8.99168
들도	-8.99195
▁추	-8.99203
▁예상	-8.99232
▁장면이	-8.9932
▁보니	-8.99345
들에게	-8.99354
할수	-8.99591
해라	-8.99656
D	-8.99671
▁어디서	-8.99724
느	-8.99738
▁스릴	-8.99975
▁왕	-9.00058
▁끝나	-9.00062
건데	-9.00188
▁추억	-9.00271
놓고	-9.00283
▁이딴	-9.00361
r	-9.00469
▁비교	-9.00482
근데	-9.00494
▁오래	-9.00524
▁아버지	-9.00535
▁경	-9.00701
▁훌륭한	-9.00786
▁카	-9.00837
♡	-9.0085
▁영화임	-9.00866
▁힘	-9.00884
▁제가	-9.00885
▁새로운	-9.00895
▁누구	-9.01084
▁머리	-9.01242
▁있어서	-9.01263
찍	-9.01263
▁저런	-9.01264
▁ᅳ	-9.01289
줘	-9.01309
▁극장판	-9.0132
▁원작을	-9.01434
▁다음	-9.01452
왕	-9.01608
▁뭐냐	-9.01727
없음	-9.01756
▁아이들	-9.01919
린다	-9.01953
▁나의	-9.01958
커	-9.01993
▁몸	-9.02165
▁허접	-9.02265
0	-9.0227
목	-9.02305
▁많	-9.0231
~!!	-9.02388
▁그리	-9.02441
▁말도	-9.02492
혜	-9.02556
쪽	-9.02556
처	-9.0269
겠지	-9.02868
▁계	-9.02889
▁방송	-9.03166
각	-9.03178
▁90	-9.03222
▁포	-9.03393
▁화면	-9.03457
▁평점을	-9.03488
▁아직	-9.03508
였	-9.03673
▁감독님	-9.03951
되어	-9.03966
슴	-9.04075
했어요	-9.04128
▁영상미	-9.0415
▁주제	-9.0415
베	-9.04321
▁생각하게	-9.0448
▁여배우	-9.04509
▁양	-9.04527
월	-9.0457
완	-9.04644
▁대단한	-9.04779
▁항상	-9.04955
▁메	-9.04986
▁일단	-9.05098
▁포스터	-9.05136
▁하지	-9.05169
▁주인공이	-9.05204
i	-9.05256
▁봤음	-9.05301
거나	-9.05334
간다	-9.05426
▁달	-9.05463
▁사회	-9.05481
한거	-9.05568
들어	-9.05629
▁뒤	-9.05669
빈	-9.05702
련	-9.05769
▁게	-9.05835
▁좋은영화	-9.05836
거다	-9.05873
l	-9.05905
채	-9.06036
▁흥행	-9.06039
▁맛	-9.06145
땐	-9.06283
벌	-9.06416
▁크	-9.06468
길래	-9.06511
▁코	-9.06627
▁있어	-9.06657
숙	-9.06677
▁버	-9.06684
▁못하는	-9.06698
▁그런지	-9.06717
마지막	-9.06908
광	-9.06923
허	-9.06935
▁봐라	-9.0695
▁자체가	-9.07111
b	-9.07294
▁그러나	-9.07314
정도로	-9.07424
▁데	-9.07567
▁개연성	-9.07677
▁나올	-9.07704
듬	-9.07735
▁꿀잼	-9.07804
▁비해	-9.07827
별로	-9.0793
으니	-9.07934
으나	-9.08028
▁가는	-9.08044
에는	-9.08263
▁비디오	-9.08268
이라면	-9.08389
▁처음부터	-9.0866
▁집중	-9.08706
보기	-9.08809
▁같	-9.08865
▁저는	-9.08956
었어요	-9.09053
▁가지고	-9.09056
▁충분히	-9.09122
년전	-9.09245
▁볼만	-9.0925
철	-9.09302
였는데	-9.09307
▁뭐가	-9.0935
▁없어서	-9.09402
하냐	-9.09403
▁언제	-9.09449
▁실	-9.09504
규	-9.09564
▁만점	-9.09577
좋	-9.09577
▁아까움	-9.09581
▁TV	-9.09712
▁궁금	-9.09722
_	-9.09736
▁짜증	-9.09773
▁빨리	-9.09951
돌	-9.10098
▁않았	-9.10146
부분	-9.10155
▁있는데	-9.10229
처음	-9.10242
▁세계	-9.10297
법	-9.10309
분들	-9.10348
▁이런영화	-9.10401
▁산	-9.1043
덕	-9.10455
츠	-9.10657
▁제작	-9.10821
잔	-9.10823
▁옛날	-9.10941
▁찾	-9.11141
같다	-9.1116
▁점점	-9.11171
끝	-9.11204
▁사람은	-9.11236
합	-9.11238
▁영화도	-9.1126
▁너무너무	-9.11327
었	-9.11333
도록	-9.11477
▁순	-9.11499
▁책	-9.1183
OO	-9.11864
▁있었다	-9.11887
▁잘못	-9.11988
▁순간	-9.11991
곤	-9.12076
▁안된다	-9.1225
▁초딩	-9.12324
▁몰입	-9.12454
별	-9.12469
▁봄	-9.12514
▁삼류	-9.12577
▁(	-9.127
쯤	-9.12841
품	-9.12862
▁했다	-9.12877
▁꿈	-9.13033
▁여주	-9.13221
▁tv	-9.13521
청	-9.13593
적이고	-9.13607
▁좋네요	-9.13611
뜨	-9.13631
최악	-9.13643
▁키	-9.13645
지금	-9.13651
▁레	-9.13862
귀	-9.13876
▁부족	-9.13902
하니	-9.1396
▁나이	-9.14023
했고	-9.14029
▁good	-9.1404
혀	-9.14052
▁더욱	-9.14064
▁이유	-9.14103
▁번	-9.14294
-_-	-9.14297
▁패	-9.14356
른	-9.14425
▁나온다	-9.14465
▁영화라	-9.14506
▁완벽	-9.14553
배우들	-9.146
내가	-9.14753
라니	-9.14817
시대	-9.1484
▁재밌는데	-9.14908
약	-9.14924
▁멜로	-9.15065
▁써	-9.1514
▁그닥	-9.15302
▁돌	-9.15461
▁시절	-9.15464
▁부분	-9.15467
▁잠	-9.15531
▁현	-9.15591
다시	-9.15901
술	-9.15972
▁요	-9.16086
▁보여주	-9.16344
사람들	-9.16405
▁좋겠다	-9.16487
곡	-9.165
▁하다	-9.16574
거냐	-9.16624
▁것은	-9.16634
▁첨	-9.16653
되고	-9.16668
▁삼	-9.1671
맞	-9.1672
▁작	-9.16789
이라니	-9.16853
잖아	-9.16871
▁선택	-9.16889
▁역	-9.16895
▁무조건	-9.16999
▁도저히	-9.1703
▁한마디로	-9.17068
▁엄청난	-9.17223
▁쳐	-9.17247
▁불륜	-9.17253
메	-9.17253
주의	-9.17256
▁유치한	-9.17282
▁망작	-9.17342
▁지루해	-9.17429
▁종	-9.17525
▁어릴때	-9.17652
▁과거	-9.17659
▁재밌었다	-9.17661
▁노력	-9.17711
연출	-9.17848
익	-9.17855
마다	-9.17857
▁관	-9.17934
효	-9.17999
전개	-9.18069
▁더럽게	-9.18174
▁아쉬운	-9.18283
▁참고	-9.18307
▁놀	-9.18318
▁이영화는	-9.18391
겠	-9.1844
▁전개가	-9.18524
쉬	-9.1854
▁아닌가	-9.1857
▁다시봐도	-9.18591
▁성우	-9.18621
▁100	-9.18722
▁생각해	-9.18728
놈	-9.18778
▁예전에	-9.18795
기가	-9.18806
▁편집	-9.18874
▁슬픈	-9.18943
▁돌아	-9.18956
염	-9.19077
▁지금까지	-9.19145
틀	-9.19202
▁두번	-9.19395
만한	-9.19452
▁소설	-9.19484
▁낮은	-9.19532
▁따뜻한	-9.19568
▁대단	-9.19641
▁어디	-9.19925
재미있	-9.19937
▁그때	-9.20004
▁낫다	-9.20014
하여	-9.20046
▁해서	-9.20087
이게	-9.20098
▁나와	-9.20115
▁지나	-9.20198
▁팬	-9.2021
▁숨	-9.20327
스럽다	-9.20348
튼	-9.20378
브	-9.20403
n	-9.20452
▁따	-9.20461
것같다	-9.20607
지고	-9.20667
보다는	-9.20694
걸까	-9.20864
▁모르고	-9.20892
존	-9.20938
w	-9.20938
▁보는데	-9.20995
성이	-9.2102
▁이것도	-9.21065
▁원래	-9.2107
▁짜	-9.21074
나서	-9.21084
나라	-9.21114
▁봤네요	-9.21148
많	-9.21172
▁쓴	-9.21186
▁돈주고	-9.21242
도없고	-9.21311
▁이미	-9.21316
▁80	-9.21333
먼	-9.21382
▁새	-9.21425
대박	-9.21438
거리	-9.21488
▁만족	-9.21496
졌	-9.2152
▁존재	-9.21533
▁첫	-9.21743
▁감독은	-9.21793
▁없네	-9.21882
하던	-9.21985
엇	-9.22001
▁인물	-9.22127
▁댓글	-9.22207
▁사랑을	-9.22217
▁윤	-9.22231
념	-9.22273
▁ᄍᄍ	-9.223
▁흠	-9.22382
▁물론	-9.22497
▁재미없어	-9.22554
▁질	-9.2258
이냐	-9.22621
:	-9.23006
▁평점은	-9.2304
세요	-9.23095
봐라	-9.23141
앗	-9.23275
놈들	-9.23357
▁사람들은	-9.23409
▁모르는	-9.2343
▁힘든	-9.2346
▁복수	-9.23521
▁설명	-9.23581
립	-9.23602
▁자꾸	-9.23608
▁죽음	-9.23775
▁역사	-9.2381
시리즈	-9.23874
찬	-9.23897
g	-9.23901
▁설	-9.23923
▁있음	-9.23972
▁봐	-9.23976
▁결혼	-9.23985
▁초반	-9.24001
롭	-9.24002
명작	-9.24018
▁통	-9.24123
▁만나	-9.24137
만들	-9.24155
해지는	-9.24195
보다가	-9.2422
음악	-9.24232
▁완벽한	-9.2431
▁전형적인	-9.24406
년도	-9.24508
료	-9.24692
▁그래픽	-9.24703
그래도	-9.24751
몰	-9.2478
▁까	-9.24809
링	-9.24827
▁없을	-9.24857
▁헐	-9.24939
들과	-9.25013
▁귀신	-9.25108
▁합니다	-9.25174
▁미화	-9.25195
▁실화	-9.25275
▁저질	-9.25303
▁그게	-9.25466
▁늘	-9.25467
▁찍	-9.25519
▁아빠	-9.2566
p	-9.25686
????	-9.25762
▁괜히	-9.2577
좋은	-9.2591
▁여성	-9.26129
삼	-9.26139
싸	-9.26145
▁반전이	-9.26156
▁느끼게	-9.26347
▁싸	-9.26349
주인공	-9.26417
보는데	-9.26509
▁오히려	-9.26576
▁예고편	-9.26591
올	-9.2662
▁느낄	-9.26677
겠지만	-9.26761
▁상상	-9.26784
년에	-9.26801
▁목소리	-9.26869
▁만들었	-9.26992
▁병맛	-9.26996
▁웃긴	-9.27014
▁부족한	-9.2706
겟	-9.27169
▁있다는	-9.27185
혹	-9.27236
▁연출이	-9.27303
▁이정도	-9.27313
▁개그	-9.27346
▁없네요	-9.27404
이에요	-9.27419
아이	-9.27462
써	-9.27506
00	-9.27565
▁영화보다	-9.27586
▁알았다	-9.2759
▁억지로	-9.27699
▁무서운	-9.2774
▁만들지	-9.27818
▁뭔지	-9.27836
본다	-9.27838
▁재밌어	-9.2787
▁나라	-9.27915
어도	-9.28037
에요	-9.28065
특	-9.28114
▁이리	-9.28197
는걸	-9.28199
런	-9.28315
탈	-9.28319
▁일본영화	-9.28339
지않	-9.28471
▁SF	-9.28648
▁집	-9.28654
▁좋음	-9.28682
▁알게	-9.28699
▁완성도	-9.2872
▁우연히	-9.28726
그런	-9.28763
윤	-9.28804
하세요	-9.2889
봐서	-9.2901
▁인정	-9.2902
c	-9.29051
점짜리	-9.29087
▁이야기를	-9.29262
많이	-9.29294
▁감동적이	-9.29355
▁귀	-9.29377
함을	-9.29396
▁방	-9.29399
▁인간의	-9.29465
▁별루	-9.29539
▁만드	-9.29571
▁연출력	-9.29573
▁어린	-9.29585
▁평점에	-9.29624
▁현재	-9.29636
하는거	-9.29679
f	-9.29701
맛	-9.29741
십	-9.29782
▁좋았어요	-9.29799
▁기대하고	-9.29911
▁대한민국	-9.29937
일까	-9.29939
~~~~	-9.29958
▁믿고	-9.29987
모르	-9.30011
아서	-9.30039
만으로도	-9.30152
▁어색	-9.30214
▁신기	-9.30247
▁대작	-9.30364
▁돈이	-9.30371
짝	-9.30405
▁볼수	-9.30422
▁진실	-9.30546
▁스타일	-9.30682
▁이상한	-9.30794
▁진행	-9.30938
여서	-9.31058
▁비슷한	-9.31086
▁아무것도	-9.31152
을듯	-9.31175
▁재미있	-9.31209
▁권	-9.3123
징	-9.31351
하긴	-9.31564
▁세상	-9.3159
강추	-9.3165
꼬	-9.31661
좋다	-9.3176
축	-9.31823
▁가치	-9.31915
▁꼬	-9.31932
▁문	-9.31982
▁작품성	-9.32094
▁킬링타임용	-9.32104
▁서로	-9.32131
영화다	-9.32134
^	-9.32141
속에	-9.322
▁휴	-9.32241
끔	-9.32249
▁온	-9.32378
▁프랑스	-9.32407
말이	-9.32591
졌다	-9.32782
▁액션도	-9.32834
한번	-9.32847
▁처음으로	-9.32909
▁배우가	-9.32977
딱	-9.33029
인거	-9.33135
▁b	-9.33175
▁금	-9.33331
더군요	-9.33381
▁해준	-9.33412
▁재미있고	-9.33443
▁특유의	-9.33469
▁이후	-9.33609
E	-9.33663
에겐	-9.33677
▁듯한	-9.33681
▁ost	-9.33689
지루	-9.33823
▁성장	-9.3383
▁형	-9.3393
족	-9.33935
▁바보	-9.34026
................	-9.34048
아닌	-9.34087
▁앞으로	-9.34121
했을	-9.34132
▁화이팅	-9.3417
m	-9.34206
▁알았는데	-9.34222
▁으	-9.34231
▁여운	-9.34243
이면	-9.34251
한데	-9.34278
재밋	-9.34373
▁천재	-9.34504
봐야	-9.34513
▁않을	-9.34528
리가	-9.34553
주세요	-9.34679
▁M	-9.34741
▁낮	-9.34744
▁코메디	-9.34773
아깝다	-9.34846
▁바람	-9.34909
▁지루하지	-9.3496
역시	-9.35081
▁흥미진진	-9.35116
▁대단하다	-9.35132
함이	-9.35139
▁아이들이	-9.35221
▁수가	-9.35232
드는	-9.35316
▁전작	-9.35333
▁졸라	-9.35343
▁것이다	-9.35353
▁트	-9.35439
▁이런걸	-9.355
킹	-9.35527
▁태	-9.35533
▁청춘	-9.35562
성을	-9.35644
였던	-9.35738
▁모습이	-9.35738
▁지금도	-9.35757
▁흥미	-9.35796
▁질질	-9.35844
▁마무리	-9.35866
결말	-9.35951
▁이런거	-9.35995
▁캐	-9.36032
으며	-9.36096
▁감사	-9.36262
▁말고	-9.3627
▁이번	-9.36319
▁유치하고	-9.36384
▁이러	-9.36499
무슨	-9.36525
럽	-9.3659
▁어렸을때	-9.36602
자가	-9.3662
는것	-9.36645
▁왜이리	-9.36663
▁19	-9.36703
▁교훈	-9.36741
변	-9.36861
▁굳	-9.36895
▁액션영화	-9.36931
재미없	-9.36962
▁해도	-9.36999
하시	-9.37122
▁않았다	-9.37152
▁만들었다	-9.37373
책	-9.37388
오는	-9.37445
▁비추	-9.37469
보면서	-9.37485
▁재미없고	-9.37532
났다	-9.37533
▁황	-9.3754
▁클	-9.37547
훈	-9.3771
▁지난	-9.37874
웃음	-9.37997
▁맞는	-9.38016
▁골	-9.38019
u	-9.3804
▁소름	-9.38066
▁멋있	-9.38092
만든	-9.3811
반전	-9.38112
페	-9.38226
▁실제	-9.38345
패	-9.38387
&	-9.38393
▁명작이다	-9.3842
▁시청률	-9.38439
있는데	-9.38441
▁둘	-9.38474
답	-9.3856
▁확	-9.38564
▁프로	-9.38607
▁리	-9.38617
것이다	-9.38619
▁노출	-9.3875
추천	-9.38839
놓은	-9.38885
▁않음	-9.38978
▁장면은	-9.39198
▁유머	-9.39233
엉	-9.39255
였습니다	-9.39271
가족	-9.39319
억	-9.39361
▁속편	-9.39409
▁시대	-9.39425
방송	-9.39478
한영화	-9.39635
▁아쉽	-9.39681
▁병	-9.39849
렌	-9.39856
▁화려한	-9.39857
애니	-9.39946
하자	-9.39947
▁또한	-9.39994
▁ᄒᄒᄒ	-9.40063
가서	-9.40234
▁아니지만	-9.40239
▁최악이다	-9.40339
▁그렇고	-9.40349
힌	-9.40349
▁귀여운	-9.40363
밀	-9.40387
떨어	-9.40428
▁광	-9.40523
▁알아	-9.40536
▁겁나	-9.40539
▁사랑이	-9.40625
웠	-9.40674
▁관람	-9.40901
▁본다	-9.40926
▁진부한	-9.41021
▁시간낭비	-9.41025
▁알았	-9.41094
▁남주	-9.41122
▁작품이	-9.41138
수록	-9.41151
▁식	-9.41247
▁게임	-9.41303
▁아닐까	-9.41316
굿	-9.41396
▁저도	-9.41434
하는게	-9.41466
점준다	-9.41483
▁사건	-9.41602
▁했	-9.41612
▁관계	-9.41625
면서도	-9.41748
▁몰	-9.41757
▁먹먹	-9.41761
▁분명	-9.4187
▁좋았습니다	-9.41889
▁재밌었어요	-9.41915
▁내인생	-9.41927
준다	-9.41964
작가	-9.42025
▁떠나	-9.42039
▁왠지	-9.42116
시켜	-9.42253
량	-9.42317
셔	-9.42352
▁어찌	-9.42382
▁C	-9.42422
▁감상	-9.42504
▁좋았고	-9.42738
네여	-9.42789
▁없었	-9.42852
▁전체적으로	-9.42867
▁행동	-9.42878
▁짜증나	-9.42902
독	-9.42987
모습	-9.43132
받	-9.43283
랄	-9.43352
이렇게	-9.43419
▁뻔	-9.43503
T	-9.43594
▁자유	-9.43607
꼭	-9.43619
▁신선	-9.43636
▁그래	-9.43664
에서는	-9.43689
▁마음을	-9.43874
갑	-9.43895
▁성인	-9.43912
갔	-9.43955
▁보여준	-9.43978
▁경찰	-9.43985
▁복	-9.43988
20	-9.44032
▁군대	-9.44127
사람이	-9.44159
분이	-9.44199
▁보여	-9.44269
▁나쁜	-9.44279
▁생각한다	-9.44309
했으면	-9.44319
@	-9.44366
▁나만	-9.44442
실망	-9.44663
▁잘봤습니다	-9.44698
령	-9.44715
▁아들	-9.44736
▁이어	-9.44782
▁마치	-9.44824
▁그런데	-9.44854
순간	-9.44873
▁하면	-9.44911
▁무엇보다	-9.44952
▁느끼	-9.44974
▁티	-9.44977
▁영화였습니다	-9.44983
▁삶을	-9.44992
▁눈이	-9.45015
▁스토리에	-9.45016
▁허접한	-9.45027
▁같습니다	-9.45061
▁먼저	-9.45098
▁되어	-9.4513
졸	-9.45133
▁끝내	-9.45335
ᅲᅲᅲ	-9.45469
▁성공	-9.45495
▁상상력	-9.45558
▁주인공들	-9.45584
▁목	-9.45665
견	-9.45666
▁살인	-9.4569
▁보고나서	-9.45719
얼	-9.45745
인이	-9.45767
▁한계	-9.45774
▁극장	-9.45851
황	-9.45863
▁대충	-9.45866
▁너무나도	-9.45928
겠네	-9.45953
을텐데	-9.45968
▁받	-9.45999
▁독	-9.46011
전에	-9.46026
▁중에	-9.46176
있게	-9.46231
줘야	-9.46264
▁터	-9.46374
버렸다	-9.46399
▁일상	-9.46431
앙	-9.46434
▁범죄	-9.46441
▁깊이	-9.46457
▁안보	-9.46467
▁회	-9.46478
눈물	-9.46482
나옴	-9.46617
친구	-9.46647
엄	-9.46781
특히	-9.46795
려서	-9.46896
마음	-9.46937
%	-9.46941
▁그녀	-9.46979
▁소재는	-9.4698
▁지금봐도	-9.47103
▁한편	-9.47171
와서	-9.47191
▁좀비	-9.47229
▁못하고	-9.47288
▁낚	-9.47425
인간	-9.4745
▁로맨틱	-9.47505
▁깊은	-9.47513
▁나에게	-9.47553
▁떠	-9.47732
▁이젠	-9.4777
시는	-9.47843
버리	-9.47844
닥	-9.47948
낮	-9.48015
▁확실히	-9.48046
▁취	-9.48125
다른	-9.48284
▁다소	-9.48322
▁드라마를	-9.48331
▁영화중에	-9.4835
거같다	-9.484
▁자신의	-9.48425
▁상영	-9.48441
▁투	-9.48507
재밌게	-9.4852
▁담	-9.48546
시키	-9.48609
▁어이없는	-9.48633
걸로	-9.48663
▁싫어	-9.48762
▁영화에서	-9.48796
취	-9.49009
풀	-9.4906
▁액션이	-9.49247
▁카메라	-9.493
한건	-9.49341
▁자신	-9.49355
▁아오	-9.49399
거임	-9.49404
야지	-9.49452
누	-9.49453
되지	-9.49501
▁각	-9.49527
송	-9.49539
--	-9.49577
득	-9.49612
▁어색한	-9.49638
▁보이는	-9.49651
=	-9.49657
▁좋았는데	-9.49728
이제	-9.49733
▁있었던	-9.49811
▁디	-9.49832
▁매력적인	-9.49841
던가	-9.50097
▁읽	-9.5015
▁용	-9.50157
깨	-9.50175
S	-9.5018
손	-9.50181
▁세상에	-9.50231
▁좋았음	-9.50298
▁눈을	-9.5031
팬	-9.50393
▁영웅	-9.50491
▁여자들	-9.50539
▁하는데	-9.50581
▁모습을	-9.50645
▁낭비	-9.50725
코미디	-9.50739
최	-9.5075
그러	-9.50783
▁같네요	-9.50816
▁왜이렇게	-9.50936
▁자연	-9.50962
최고의	-9.50998
▁그런가	-9.51165
로운	-9.51169
휴	-9.51219
▁처	-9.51223
▁독립영화	-9.51226
▁이영화가	-9.51249
x	-9.51283
▁사이	-9.5129
으면서	-9.51302
B	-9.51334
▁잘만든	-9.51552
▁이야기가	-9.51723
▁평론가	-9.51755
▁여자가	-9.51804
▁수준이	-9.51827
벨	-9.51849
스타	-9.51858
▁유쾌한	-9.51878
▁범인	-9.51885
▁고민	-9.51947
▁프로그램	-9.51948
보세요	-9.52024
시간이	-9.52035
▁감사합니다	-9.52038
▁빠져	-9.52039
스런	-9.52045
▁절	-9.5207
▁흐	-9.52071
▁이런게	-9.52141
▁급	-9.52189
▁이것	-9.52228
▁연애	-9.52236
~^^	-9.52296
▁촬영	-9.523
씩	-9.52336
일뿐	-9.52384
▁스케일	-9.52408
던지	-9.52468
▁커	-9.52657
▁믿	-9.52707
▁입니다	-9.5276
▁부분이	-9.52776
▁순수한	-9.52808
텐데	-9.52848
쩔	-9.52849
ᄀ	-9.52882
드라	-9.52913
ᄌ	-9.52963
껄	-9.52964
코드	-9.53001
▁느껴지는	-9.53014
▁동화	-9.53063
들아	-9.5307
있어	-9.53085
▁아놔	-9.53093
▁리얼	-9.53177
소재	-9.5327
▁훨	-9.53319
필	-9.53364
하라	-9.53369
없어	-9.53393
▁인상	-9.53518
▁리메이크	-9.53533
것은	-9.53552
한듯	-9.53598
▁단순	-9.53632
▁이쁘	-9.53684
▁함	-9.53782
▁드	-9.53841
▁ᄉᄇ	-9.53875
▁매력이	-9.53893
▁교	-9.53946
했는지	-9.53993
▁맥	-9.54046
▁붙	-9.54059
▁전기세	-9.54092
됬	-9.54163
딸	-9.54179
▁찍은	-9.54259
▁팔	-9.54271
▁심리	-9.54327
▁저예산	-9.54351
▁답	-9.54407
▁내용을	-9.54416
한다는	-9.54512
▁역시나	-9.54576
▁딴	-9.54628
이며	-9.54662
▁감탄	-9.54708
쿠	-9.54722
때마다	-9.54731
▁기분이	-9.54766
▁스토리와	-9.54794
▁역대	-9.54803
▁OST	-9.54806
▁떨어지는	-9.54841
나온	-9.54914
▁별로다	-9.54971
▁아름답다	-9.54982
가지	-9.55017
▁해주는	-9.55028
▁15	-9.55141
더만	-9.55177
빨	-9.55186
▁중간중간	-9.55239
▁여전히	-9.55256
▁현대	-9.55262
▁국	-9.55277
▁처음이다	-9.55341
▁ᄏᄏᄏᄏᄏ	-9.55353
▁괴	-9.55491
에서도	-9.55505
▁독특한	-9.55611
▁됐	-9.55751
항	-9.55802
▁예전	-9.55814
하려는	-9.55837
주고	-9.55913
▁메세지	-9.55924
▁아니면	-9.55925
시절	-9.55927
쇼	-9.55937
내요	-9.55971
▁-_-	-9.56055
▁끌	-9.56074
▁그랬	-9.56079
▁현실성	-9.56109
시킨	-9.56145
▁훌륭	-9.56298
보이	-9.56315
▁나를	-9.56317
▁마라	-9.56358
▁중간	-9.56365
▁받아	-9.56393
ᅲᅲᅲᅲ	-9.5641
▁짱짱	-9.56414
▁유쾌	-9.56417
찌	-9.56439
▁홍	-9.56508
▁아저씨	-9.56554
▁든다	-9.56564
▁벌	-9.56606
▁초반에	-9.56722
▁돌려	-9.56783
▁아닌데	-9.56881
▁보지마세요	-9.56886
▁전달	-9.56904
▁긴	-9.56907
돼	-9.56929
▁좋을	-9.5695
ᄂ	-9.56951
ᄆ	-9.56964
▁섹시	-9.56966
▁소재를	-9.56985
고싶다	-9.57006
▁봤었는데	-9.57013
▁했지만	-9.57017
▁찍어	-9.57098
▁제작진	-9.57124
▁<	-9.5714
▁맨	-9.57232
▁틀	-9.57298
▁젤	-9.57342
▁연기력이	-9.57381
아깝	-9.57389
▁역할	-9.57403
▁평범한	-9.57437
되서	-9.57464
해주는	-9.57516
감독이	-9.57521
▁나오고	-9.57522
*	-9.57559
▁어이없	-9.5759
▁사람을	-9.57644
활	-9.57689
▁사극	-9.57739
▁시선	-9.57816
응	-9.57827
만으로	-9.57837
▁삶	-9.57868
버리고	-9.57874
;;;;	-9.57968
었지만	-9.57968
인것	-9.57971
▁신선한	-9.58008
▁미래	-9.58024
▁볼때마다	-9.58052
나고	-9.58089
짜리	-9.58095
▁재미있음	-9.58095
▁슬프다	-9.58101
▁그림	-9.58123
▁답답	-9.58127
(?)	-9.58139
▁리뷰	-9.58144
▁슬픔	-9.5815
▁정치	-9.58162
▁있다면	-9.58218
▁전편	-9.58245
▁안나오	-9.58259
충	-9.583
▁해야	-9.58344
ᄏᄏᄏᄏᄏᄏᄏᄏᄏᄏᄏᄏᄏᄏᄏᄏ	-9.58361
급영화	-9.58364
▁싶어	-9.5839
v	-9.58393
빵	-9.58586
려는	-9.58724
몬	-9.58729
까진	-9.5874
▁저렇게	-9.58788
▁애들이	-9.58798
▁누	-9.58843
었습니다	-9.58887
엿	-9.58975
▁아름답고	-9.58998
▁보고싶다	-9.59061
▁드는	-9.59151
든다	-9.5916
새끼	-9.59176
▁귀엽고	-9.5919
▁가진	-9.59248
▁흘러	-9.59274
떡	-9.59315
▁예쁜	-9.59331
▁호러	-9.59408
▁분들	-9.59475
유치	-9.59553
▁이유가	-9.5958
클	-9.59626
노잼	-9.59692
영화중	-9.59742
▁나중에	-9.59766
▁아깝	-9.59766
▁알수	-9.59848
▁평생	-9.59857
▁그들의	-9.59919
▁꼴	-9.59977
어쩌	-9.59989
▁전에	-9.60028
홍	-9.60111
▁표정	-9.6013
▁괴물	-9.60193
니깐	-9.60247
많은	-9.6028
끌	-9.60306
르는	-9.60392
▁티비	-9.60431
▁희망	-9.60452
▁액션은	-9.60479
▁벗	-9.60543
▁드라마가	-9.60552
▁살짝	-9.60554
▁악역	-9.60599
▁굳이	-9.60611
▁죄	-9.60621
▁재밌었는데	-9.60688
▁등장	-9.60735
ᄃ	-9.60751
▁고전	-9.60806
▁감동적이고	-9.60808
▁뒷	-9.6083
탕	-9.6088
놓	-9.60887
둘	-9.60894
▁아는	-9.60905
팔	-9.60934
▁끝나고	-9.60946
▁우울	-9.61001
ᄍᄍ	-9.61032
릭	-9.61098
▁희생	-9.61139
▁표절	-9.6115
▁통해	-9.61166
만들어	-9.6118
▁사랑하는	-9.61218
//	-9.61239
▁안되고	-9.61265
프로	-9.61282
시키는	-9.61321
재미없다	-9.61341
▁않아	-9.61362
제목	-9.61517
▁니	-9.6154
쓴	-9.61602
▁참신	-9.61665
굴	-9.61727
▁바라	-9.61746
마저	-9.61753
▁얼	-9.61779
▁어릴적	-9.61793
나올	-9.61933
▁후반	-9.61967
▁웃겨	-9.62072
▁하게	-9.62107
A	-9.62195
▁춤	-9.62265
▁....	-9.62323
줌	-9.62333
▁끝난	-9.62397
▁과연	-9.62419
▁분노	-9.62442
▁보기엔	-9.6245
▁보는게	-9.62469
▁기대를	-9.62496
같	-9.62524
지마라	-9.6262
▁용서	-9.62651
하는지	-9.6271
▁몰입이	-9.62788
골	-9.6279
암	-9.62801
C	-9.62857
거라	-9.62873
▁싫다	-9.62906
▁남는다	-9.62921
지마	-9.62945
말고	-9.62955
▁능력	-9.62958
낼	-9.62972
▁압권	-9.62973
감이	-9.62976
▁종교	-9.63004
인생	-9.63082
▁연기에	-9.63083
▁포장	-9.63126
▁근	-9.63149
▁라는	-9.63166
▁잔인	-9.63307
▁스토리를	-9.63315
하셨	-9.63344
▁나가	-9.63352
센	-9.63388
▁안하고	-9.63425
▁게이	-9.63489
▁느	-9.6354
▁안됨	-9.63745
▁추천합니다	-9.6375
▁아닌듯	-9.63798
▁그럭저럭	-9.63805
좋아요	-9.63866
▁연기와	-9.63871
▁몰입감	-9.63888
▁12	-9.63974
▁재밌었	-9.63991
▁무지	-9.64013
번째	-9.64059
뜻	-9.64137
진심	-9.64153
더라구요	-9.64218
▁우정	-9.64224
▁월	-9.64234
줬	-9.64236
▁짜증나는	-9.64308
▁cg	-9.64437
머리	-9.64443
람	-9.64536
씨가	-9.64564
▁생각합니다	-9.64587
▁음악이	-9.64592
▁알바들	-9.6465
▁메시지	-9.64674
하다니	-9.64736
만화	-9.64738
스터	-9.64793
▁짠	-9.64839
▁이연걸	-9.64848
▁잼있게	-9.64851
▁만들어진	-9.64878
하려고	-9.64893
▁지루하	-9.64904
▁말로	-9.64949
▁그의	-9.64982
할듯	-9.65026
▁허무	-9.65029
▁처음엔	-9.65075
▁채	-9.65119
▁나서	-9.6515
▁여러	-9.65216
▁멋	-9.65233
한게	-9.65238
기엔	-9.65255
동안	-9.6526
로서	-9.65288
▁스타	-9.65295
첨	-9.65385
▁열심히	-9.65391
죄	-9.65401
총	-9.65412
협	-9.65426
▁먼	-9.65429
▁폭력	-9.65439
▁보고싶	-9.65452
잉	-9.65467
됐	-9.65597
▁홍콩	-9.65651
▁나왔으면	-9.65654
▁이건뭐	-9.6569
▁다행	-9.6572
▁재미없네	-9.65783
▁사는	-9.65792
▁출	-9.65795
▁더이상	-9.65938
▁느끼는	-9.65957
▁포기	-9.65988
하면서도	-9.66043
▁공감이	-9.66076
▁긴장	-9.66087
▁짓	-9.66103
뚱	-9.66117
ᄒᄒᄒ	-9.6627
▁재밌습니다	-9.66349
▁묘사	-9.66386
▁접	-9.66416
오빠	-9.66422
뒤	-9.66434
영환	-9.66461
▁난다	-9.66479
▁밀	-9.66507
놀	-9.66507
혼	-9.66531
괴	-9.66548
▁티비에서	-9.66598
▁개판	-9.66613
▁했던	-9.66624
좋았	-9.66712
▁빛	-9.66727
▁많다	-9.66752
▁밑에	-9.6676
▁뮤지컬	-9.66771
표현	-9.66813
안에	-9.66816
▁A	-9.66921
▁가지	-9.66983
누나	-9.67055
▁같아	-9.67072
▁달리	-9.67082
▁시원	-9.67141
▁있지	-9.67143
▁봤다가	-9.67169
잼있	-9.67181
▁빼	-9.67234
▁되었다	-9.67238
▁아까워	-9.67277
▁칼	-9.6729
▁보시길	-9.67386
렉	-9.674
▁봤으면	-9.67403
해준	-9.67409
▁그렇다	-9.6748
▁영화이다	-9.67545
▁설레	-9.6758
▁진심으로	-9.67614
▁주인공의	-9.67641
▁낫	-9.67648
▁같음	-9.6769
."	-9.67782
▁표	-9.67838
▁중요한	-9.67853
▁황당	-9.67878
▁기본	-9.67887
맞추	-9.6793
▁40	-9.67949
했어	-9.68093
영상	-9.68096
것을	-9.68159
▁볼거리	-9.68188
없네	-9.68297
속에서	-9.68348
재밌어요	-9.68376
▁I	-9.68443
▁+	-9.68503
욱	-9.68535
먹고	-9.68561
,,,,	-9.68635
▁재미를	-9.68754
▁몸매	-9.68763
끄	-9.6879
폐	-9.68806
▁고생	-9.68828
북	-9.68836
▁볼만함	-9.6892
▁인기	-9.6896
▁덜	-9.69013
랬	-9.69128
아님	-9.69157
내는	-9.6916
지않은	-9.69186
랜	-9.69195
▁소녀	-9.69214
드리	-9.69223
▁자막	-9.69231
▁사랑과	-9.69299
▁크게	-9.693
▁올리	-9.69333
년전에	-9.69343
힐	-9.69364
▁다만	-9.69433
▁사랑에	-9.69444
▁이유는	-9.69446
▁영화보고	-9.69557
▁이정도면	-9.69569
▁생각나는	-9.69628
일이	-9.69636
점주는	-9.69653
▁무섭다	-9.69842
하겠	-9.6985
▁민	-9.69857
▁만든다	-9.69917
었고	-9.69918
▁쓰래기	-9.69934
다운	-9.69982
▁되게	-9.70097
▁그다지	-9.70113
▁퀄리티	-9.70184
는건지	-9.70201
엄마	-9.70243
▁흐름	-9.7028
을수	-9.70309
▁높다	-9.70365
얘기	-9.70415
▁죽어	-9.70494
전쟁	-9.705
했나	-9.70545
아주	-9.70645
▁쉽게	-9.70702
▁놓	-9.70712
▁필요없다	-9.70793
▁북한	-9.70958
▁풀어	-9.70988
▁다큐멘터리	-9.71028
인의	-9.71107
▁오버	-9.71158
▁추억의	-9.71225
타임	-9.7127
▁최근	-9.71276
▁제목이	-9.71326
롱	-9.71334
었으면	-9.71363
ᄅ	-9.71363
▁없지만	-9.71395
▁관심	-9.71418
▁볼수록	-9.71471
▁좋았던	-9.71564
▁유치함	-9.71593
▁필요없는	-9.71623
스럽	-9.71706
▁어제	-9.71732
▁삶의	-9.71779
▁아쉬움	-9.71862
▁어쩔	-9.71931
▁지루해서	-9.71935
껏	-9.71936
▁그려	-9.71976
퇴	-9.72
▁후반부	-9.72009
▁영화지만	-9.72021
▁디즈니	-9.7204
▁언제나	-9.72069
▁지루할	-9.72137
하는것	-9.7214
캐릭터	-9.72227
▁남을	-9.72296
▁재미있네요	-9.72313
▁창	-9.72393
▁감동과	-9.72492
▁몇번을	-9.72492
였지만	-9.72529
▁해피엔딩	-9.72544
▁글쎄	-9.72566
▁그걸	-9.72572
막장	-9.72642
▁젊은	-9.72657
▁가볍게	-9.7272
▁비주얼	-9.7272
▁싸구려	-9.7272
▁힐링	-9.72721
▁S	-9.72739
▁명작이	-9.72792
▁불편	-9.72848
▁좋습니다	-9.72856
▁정서	-9.72891
▁친	-9.729
▁남아	-9.72945
킨	-9.73002
▁드라마는	-9.73002
▁봐야할	-9.73013
▁재밌네	-9.73085
리스	-9.73137
재밌다	-9.73207
▁엉성한	-9.73236
▁보고싶은	-9.73258
▁싫	-9.73379
로써	-9.73383
▁소재가	-9.73397
★	-9.73403
이해	-9.7348
자들	-9.73494
내용이	-9.73497
▁느낄수	-9.73603
ᄏᄏᄏᄏᄏ	-9.73616
▁돌아가	-9.73729
on	-9.73737
▁동생	-9.73748
대사	-9.73873
▁배우의	-9.73958
▁폭	-9.73986
였어요	-9.74009
▁재밋게	-9.74048
뿌	-9.74058
ᅡ	-9.74094
▁눈빛	-9.74113
▁있나	-9.74214
가지고	-9.74257
▁샤	-9.74324
▁씨	-9.74329
▁똑같	-9.74383
▁소재로	-9.74409
접	-9.74411
애들	-9.74434
ᄃᄃ	-9.74439
하구	-9.74559
▁몰라도	-9.74618
▁놀라	-9.74646
▁아깝지	-9.74682
▁못했다	-9.74717
N	-9.74775
▁넣	-9.7505
확	-9.75172
세기	-9.7526
예요	-9.75436
탁	-9.75455
▁만큼	-9.75464
j	-9.75488
녕	-9.75489
폰	-9.75489
▁70	-9.75597
▁몰랐	-9.75613
▁s	-9.75624
했네	-9.7579
▁ᅮ	-9.75832
▁청	-9.75846
▁동물	-9.75903
▁킬링타임	-9.7593
현실	-9.75996
▁맘	-9.76013
기분	-9.76022
놔	-9.76031
▁좋아서	-9.76041
줄이야	-9.76056
했다는	-9.76098
▁돋	-9.76114
콜	-9.7618
중의	-9.7618
왔	-9.76184
▁연예인	-9.76193
봣는데	-9.76254
▁국민	-9.76269
▁잔인한	-9.76321
▁섹스	-9.76321
▁보았	-9.76334
되면	-9.7638
하신	-9.76496
사이	-9.76502
끈	-9.76611
▁우리가	-9.7663
▁광고	-9.76743
▁슬프고	-9.76777
춘	-9.76862
▁헐리우드	-9.76902
댄	-9.76902
▁슬프	-9.76928
일본	-9.76954
▁마세요	-9.7697
봉	-9.77003
▁다시한번	-9.7703
▁끝나는	-9.77238
킬	-9.77361
M	-9.77377
스릴러	-9.77378
▁가서	-9.77388
▁그럼	-9.77463
력이	-9.77513
웅	-9.77542
있음	-9.77653
▁가끔	-9.77664
빡	-9.77716
▁악당	-9.7772
사회	-9.77841
▁반전도	-9.7786
▁점수를	-9.7789
폭	-9.77952
▁홍보	-9.78019
떠	-9.78119
▁페	-9.78134
함과	-9.78185
▁보러	-9.78219
▁이제야	-9.7822
▁ᄃᄃ	-9.78285
▁법	-9.78311
털	-9.78336
▁불구하고	-9.78336
▁아픔	-9.78374
▁요소	-9.78429
▁찡	-9.78523
▁들었	-9.78538
▁지구	-9.78551
▁우주	-9.7859
▁사람의	-9.78604
▁문화	-9.7864
▁그린	-9.78678
▁않게	-9.78709
▁만들고	-9.78768
한다면	-9.78868
좋고	-9.7888
▁멋지다	-9.78892
웃기	-9.78893
▁브	-9.78901
험	-9.7891
▁발전	-9.78972
공포	-9.79031
▁뛰어난	-9.79092
▁방금	-9.79106
▁펑펑	-9.79112
▁생애	-9.79139
▁사랑스러운	-9.79169
▁올해	-9.7932
▁없나	-9.79486
▁멀	-9.79489
시고	-9.79522
▁재밋다	-9.79542
나와서	-9.7955
▁음악도	-9.79553
▁아마	-9.79588
▁다르	-9.79592
명이	-9.79602
웠다	-9.79615
온다	-9.79668
▁찍었	-9.79737
개봉	-9.79763
팅	-9.79783
▁어려운	-9.7979
O	-9.79831
▁잊혀지지	-9.7985
으론	-9.79873
▁에로	-9.79939
픈	-9.80014
▁진정	-9.80026
▁의심	-9.80059
▁나쁘지	-9.80086
옥	-9.80202
▁있게	-9.80234
▁돋보	-9.80236
▁실패	-9.80299
▁있습니다	-9.80305
▁개인	-9.80328
착	-9.80361
▁연출도	-9.80378
▁죽이	-9.80406
땅	-9.80408
점준	-9.80414
섭	-9.80425
▁웃기고	-9.80428
▁인생을	-9.80473
흑	-9.80494
했으나	-9.80508
▁로그인	-9.80526
▁시사회	-9.80564
▁임	-9.80587
빼고	-9.80596
▁영화냐	-9.80629
▁둘다	-9.80635
♥♥	-9.80721
▁갑	-9.80778
▁식상	-9.80811
▁낮아서	-9.80828
▁딱히	-9.80847
▁영화관	-9.80847
필요	-9.80873
▁킬링타임용으로	-9.80886
▁유치하다	-9.80903
▁ᄋᄋ	-9.80909
▁쫌	-9.80924
▁되지	-9.80975
▁산으로	-9.81008
헤	-9.81012
빙	-9.81046
학생	-9.81103
▁드럽게	-9.8113
택	-9.81191
하지도	-9.81193
▁싶었	-9.812
홀	-9.81239
]	-9.81266
▁아름다움	-9.81266
▁무언가	-9.81268
▁달라	-9.81295
▁연결	-9.81337
▁할말	-9.8138
▁그것	-9.81394
한것	-9.81428
▁결과	-9.81445
▁재밌었음	-9.81474
▁열정	-9.81531
▁엉망	-9.81537
마리	-9.81539
할까	-9.81555
▁헤	-9.81566
▁모르겠	-9.81611
나가는	-9.81649
▁철	-9.81717
▁귀엽	-9.81854
▁유명	-9.81854
답답	-9.81929
▁죄다	-9.81958
자체가	-9.81971
용으로	-9.82018
높	-9.82058
▁베스트	-9.82064
▁죽는	-9.82074
▁순수	-9.82076
▁많아	-9.82095
▁생생	-9.82104
▁단연	-9.82164
▁무섭	-9.82207
▁평범	-9.82213
▁평이	-9.82223
▁느와르	-9.82237
같음	-9.82256
봣	-9.8226
▁불쌍	-9.82269
▁반성	-9.82302
▁볼만하다	-9.82313
인들	-9.824
▁거지	-9.82407
웨	-9.8244
무비	-9.82442
▁한국인	-9.8246
▁빌려	-9.82492
▁캐릭터들	-9.82525
▁탈	-9.8253
▁재미있었다	-9.82604
▁시간을	-9.82665
세상	-9.82729
▁차이	-9.82736
틱	-9.82759
▁쵝오	-9.82765
▁어머니	-9.82795
대는	-9.82825
▁고통	-9.82838
에대한	-9.83012
▁어이가	-9.83026
▁조폭	-9.83123
▁봣는데	-9.83155
우리	-9.83221
▁풀	-9.83244
원작	-9.8326
▁정말로	-9.83357
나게	-9.83381
캐	-9.83459
▁히	-9.83485
엠	-9.83519
▁청소년	-9.83525
▁눈물을	-9.83547
구성	-9.83592
▁결말은	-9.83623
▁남겨	-9.83697
▁몰입해서	-9.83698
연기가	-9.83725
것만	-9.83729
▁출연진	-9.83784
▁좀더	-9.83847
▁의도	-9.83854
▁보이	-9.84029
▁괜찮	-9.84031
정신	-9.84075
▁집에서	-9.84096
▁인간이	-9.84103
▁나왔다	-9.84127
왔다	-9.84138
▁자극	-9.84153
평점이	-9.8421
▁연속	-9.84227
인가요	-9.84269
값	-9.84272
닝	-9.84285
R	-9.84285
아니다	-9.84319
엘	-9.84324
스가	-9.84399
▁어른	-9.84474
▁핵	-9.8455
스타일	-9.84557
지않고	-9.84647
다는게	-9.84661
▁말을	-9.84691
▁탄탄한	-9.84697
▁이쁜	-9.84729
▁여기서	-9.84793
▁무서워	-9.84825
▁힘들다	-9.84826
▁좋았	-9.84862
▁채널	-9.84883
먹는	-9.84898
▁옛날에	-9.84966
▁결말도	-9.85015
점수	-9.85035
▁헐리웃	-9.85055
▁스스로	-9.85057
▁질리지	-9.85059
▁멍청한	-9.85061
▁네	-9.85068
▁하루	-9.85084
영화라고	-9.85086
▁해주	-9.85106
연기도	-9.8514
▁뜻	-9.8514
▁괜찮았	-9.85144
▁있어요	-9.85253
▁아직까지	-9.85278
▁사기	-9.85294
▁현실적인	-9.85295
짜증	-9.8534
▁인간들	-9.85361
쳤	-9.85388
▁시걸	-9.8539
▁당신	-9.85427
내용도	-9.85481
▁재미없어요	-9.85502
▁보았다	-9.85546
안되	-9.85594
이었	-9.85622
늘	-9.85629
▁단순한	-9.85656
▁끌어	-9.85676
▁뻔하고	-9.8569
▁볼만하	-9.8571
▁표현한	-9.85717
버리는	-9.85728
▁하면서	-9.85742
▁루	-9.85771
쁘	-9.85824
틈	-9.85824
▁견자단	-9.8583
시다	-9.85841
▁흔한	-9.8585
중에서	-9.8589
▁시시	-9.85917
▁환상	-9.86033
▁나오면	-9.86084
한다고	-9.8613
▁전문가	-9.8614
▁떠나서	-9.86158
편보다	-9.86158
정이	-9.86166
▁남녀	-9.86205
▁T	-9.86236
으로써	-9.8625
멋	-9.86302
▁대화	-9.86368
▁빈	-9.86405
▁찌	-9.8641
▁시대를	-9.86514
아쉬	-9.86565
만드는	-9.86585
스러워	-9.86616
▁전체	-9.86643
해주세요	-9.86736
▁영국	-9.86747
▁꺼	-9.86754
감을	-9.86764
▁제작비	-9.86872
나온다	-9.86908
re	-9.86965
▁생각없이	-9.87026
▁무엇을	-9.87041
an	-9.8708
!!!!!	-9.87082
▁미드	-9.87105
사가	-9.87162
으려	-9.87174
자는	-9.87189
편의	-9.87201
▁200	-9.87238
▁못한다	-9.87275
노래	-9.87313
▁안돼	-9.87318
▁보니까	-9.87383
릿	-9.87387
▁벌써	-9.87412
▁장면에서	-9.87421
했네요	-9.87439
시작	-9.87448
▁매력적이	-9.87471
▁느낌을	-9.87497
슈	-9.87527
보는내내	-9.87612
친다	-9.87675
▁높아	-9.8776
밑	-9.87762
▁무시	-9.87805
세계	-9.87849
언니	-9.87867
▁느낀	-9.87872
럼	-9.87906
▁지금은	-9.87908
내고	-9.87911
하는건	-9.87968
긴한데	-9.87986
▁말할	-9.88016
꾸	-9.88031
▁이후로	-9.8808
냥	-9.88097
스러움	-9.88171
나와	-9.88189
▁레전드	-9.88193
▁즐겁게	-9.88197
사는	-9.88234
▁와우	-9.88241
▁지켜	-9.88268
▁시각	-9.8828
▁좋았을	-9.88369
▁남편	-9.88403
▁모든게	-9.88424
▁조연	-9.88442
▁단지	-9.88465
▁잔잔하고	-9.88484
▁말하는	-9.88498
▁작가가	-9.88627
▁야한	-9.88653
보자	-9.88684
▁않지만	-9.88706
장면이	-9.8872
계속	-9.88725
▁나오지	-9.88725
하더라	-9.88725
▁남자가	-9.8881
가슴	-9.88831
11	-9.88871
▁관객들	-9.88915
▁운	-9.88955
압	-9.88956
혁	-9.88956
땡	-9.88992
▁위대한	-9.88994
▁기대안하고	-9.88994
▁나옴	-9.89018
▁발견	-9.89025
▁매력있	-9.89054
▁판	-9.89075
▁주변	-9.89089
OOO	-9.89124
잠	-9.89145
▁빠	-9.89159
▁배우들도	-9.89189
▁영어	-9.89207
er	-9.89213
넣	-9.89241
▁건지	-9.89248
유발	-9.89278
기위해	-9.89284
▁같아서	-9.89293
▁이해할	-9.89324
"""	-9.89326
기억	-9.8935
지를	-9.89377
아까	-9.8946
▁누구나	-9.89471
▁어렸을	-9.89506
묘	-9.89524
거면	-9.89607
▁발로	-9.89717
▁환	-9.89739
떄	-9.89798
컨	-9.89798
톱	-9.89799
▁누군가	-9.89799
▁끝이	-9.89877
겁니다	-9.89886
놨	-9.89899
차라리	-9.90024
님의	-9.90059
▁안보고	-9.90066
센스	-9.90066
영화로	-9.90076
▁싶네요	-9.9009
▁밥	-9.90094
▁유쾌하고	-9.90094
▁;;	-9.90151
였고	-9.90179
갔다	-9.90226
▁50	-9.90301
▁시도	-9.90334
▁쓸	-9.90396
▁생각하는	-9.90404
▁끼	-9.90467
흔	-9.90486
▁유명한	-9.90487
▁"""	-9.90492
시간에	-9.90528
in	-9.90532
들만	-9.90587
`	-9.90612
▁뜨	-9.90627
▁맨날	-9.90662
▁느껴	-9.90666
▁못해	-9.90672
▁갈등	-9.90673
▁반복	-9.90694
▁필	-9.90723
▁이런영화가	-9.90735
▁싶지	-9.90754
▁하네요	-9.90794
사람은	-9.90803
그리	-9.90886
쩌	-9.90904
남는	-9.90921
관계	-9.90958
▁국내	-9.90995
았던	-9.90996
▁앞	-9.91031
젠	-9.91031
더라도	-9.91039
▁되고	-9.91057
따라	-9.91071
▁김기덕	-9.91087
▁아나	-9.91111
▁안타깝다	-9.91124
or	-9.91146
▁시트콤	-9.91152
▁비슷	-9.91162
▁않나	-9.91163
겹	-9.91183
▁한심	-9.91199
이니	-9.91269
받는	-9.91334
▁에휴	-9.91353
▁재밌을	-9.91397
▁눈에	-9.91403
려면	-9.91455
해진	-9.9146
▁보인다	-9.91467
계의	-9.91524
▁이거보고	-9.91537
는것도	-9.9155
ᅲᅮ	-9.91584
.......	-9.91617
냈	-9.91677
▁허세	-9.91698
젤	-9.91722
▁보길	-9.91747
▁영화에요	-9.91816
st	-9.9182
▁아이돌	-9.91825
▁못할	-9.91848
닌	-9.91917
▁인물들	-9.92045
▁한참	-9.92055
▁쇼	-9.92068
잤	-9.92233
솔	-9.92255
혈	-9.92258
상을	-9.92282
즘	-9.92289
▁줌	-9.92307
흐	-9.92326
▁잊지	-9.92347
▁공부	-9.92371
▁생각하고	-9.92479
씬은	-9.9248
님들	-9.92487
몽	-9.92519
▁내려	-9.92525
봅니다	-9.92612
▁하는지	-9.92645
▁ᅲᅲᅲ	-9.92661
몰입	-9.92669
▁진지	-9.92683
▁넘어	-9.92706
쉽	-9.92741
▁c	-9.92754
▁멋있다	-9.92793
딩	-9.92805
▁떨어지	-9.92857
해야지	-9.92863
줘서	-9.92883
▁모르겠고	-9.92886
▁꾸	-9.92927
설정	-9.92929
▁있네요	-9.92998
와는	-9.9306
뛰	-9.93067
하려	-9.93084
........	-9.93113
▁찌질	-9.93161
▁행	-9.93173
스의	-9.93254
▁옛	-9.93338
자의	-9.9342
I	-9.93427
밥	-9.93445
있네	-9.93459
▁부르	-9.93532
▁미모	-9.93533
▁투자	-9.93555
지말고	-9.93583
돌아	-9.93607
▁개연성이	-9.93651
▁진리	-9.93678
냈다	-9.9368
억지	-9.93683
▁울었다	-9.93756
▁늘어	-9.93812
찰	-9.93812
▁보고나면	-9.93923
▁즐거운	-9.93931
례	-9.93931
▁멍청	-9.93932
▁로봇	-9.93936
▁받았	-9.9401
▁있으면	-9.94035
▁코난	-9.94039
▁불쾌	-9.94072
▁팬이	-9.94074
▁무척	-9.94077
편을	-9.94087
▁최고입니다	-9.94122
▁울고	-9.94137
으로서	-9.94169
▁죽여	-9.94179
것들	-9.94274
▁씬	-9.94317
형님	-9.94328
▁부모	-9.94342
기로	-9.94359
괜찮	-9.94562
▁당시에	-9.94582
▁그렇다고	-9.94586
▁음악과	-9.94607
▁꿈을	-9.9464
▁망한	-9.94698
하던데	-9.94716
ᄏᄏᄏᄏᄏᄏᄏᄏᄏ	-9.94733
▁의리	-9.94737
▁빼고	-9.94742
▁대부분	-9.94748
▁뭉클	-9.94779
▁의외로	-9.94799
▁따뜻해지는	-9.94805
▁힘이	-9.94819
이였다	-9.94833
▁달달	-9.94844
▁없는데	-9.94864
▁송	-9.94887
끝나	-9.94935
▁한데	-9.9496
▁이기	-9.94978
▁아줌마	-9.95035
▁이쁘고	-9.9507
▁착한	-9.9515
▁대사가	-9.9517
부작	-9.95182
▁에피소드	-9.95206
▁필요한	-9.95208
▁영화였어요	-9.95235
▁굿굿	-9.95246
무섭	-9.95256
져서	-9.95258
학교	-9.95342
봐요	-9.95357
들고	-9.95395
왔는데	-9.95477
▁웃음이	-9.95496
자체	-9.95557
영화임	-9.95599
뽑	-9.9561
▁[	-9.95617
ᅵ	-9.95633
▁the	-9.95634
▁007	-9.95635
▁재미있었어요	-9.95694
째	-9.95714
▁여행	-9.95868
▁아쉽네요	-9.95871
▁있어야	-9.95908
▁우와	-9.95913
▁부터	-9.95926
할수있	-9.95933
▁되었	-9.95994
장난	-9.96045
▁썩	-9.96173
▁살고	-9.96197
▁속에	-9.96256
▁왜케	-9.96272
▁무비	-9.96439
▁긴장감도	-9.96472
▁덕분에	-9.96478
▁전투	-9.9648
▁마이너스	-9.96496
▁봤더니	-9.96496
▁초등학생	-9.96496
▁좋게	-9.96499
▁경험	-9.96512
▁복잡	-9.96527
▁친구들	-9.96553
▁일이	-9.96602
▁엉성	-9.96619
있었	-9.96624
▁감동적	-9.96645
▁이미지	-9.96646
식으로	-9.9666
▁낳	-9.96668
보게	-9.96763
▁자살	-9.96842
겁	-9.96866
▁이쁘다	-9.9695
▁노답	-9.97003
싱	-9.97025
상황	-9.97084
있나	-9.97091
▁인생의	-9.97092
▁혼	-9.97151
▁잔	-9.97187
▁신선하고	-9.97235
만들었	-9.97264
▁수도	-9.97281
▁짝퉁	-9.97313
▁마이클	-9.9733
뮤	-9.97365
▁최강	-9.9743
됐다	-9.97431
▁작품을	-9.97447
▁조합	-9.97479
▁듣	-9.97492
이런영화	-9.97495
▁모르겠지만	-9.97517
▁a	-9.97533
만큼은	-9.97536
했을까	-9.97552
▁학교에서	-9.97579
짜증나	-9.97583
▁기술	-9.97605
내내	-9.97645
▁지루했다	-9.97656
▁하나하나	-9.97687
▁받을	-9.97761
▁13	-9.97777
▁미안	-9.97804
▁쩐다	-9.97834
았습니다	-9.97881
깔	-9.97909
문제	-9.97927
만의	-9.97929
알바	-9.97943
▁좋지만	-9.97957
▁꽃	-9.98012
▁헤어	-9.98033
▁시청자	-9.98041
▁어렵	-9.98063
있어서	-9.98082
▁적당	-9.98103
버릴	-9.98136
▁작품이다	-9.98141
콘	-9.98151
었어	-9.98181
▁빼고는	-9.98244
▁더불어	-9.98245
▁흥미로운	-9.98256
문화	-9.98276
▁민망	-9.98287
해진다	-9.98288
▁어휴	-9.98312
▁살려	-9.98339
집니다	-9.98376
▁슈퍼	-9.98428
▁없었던	-9.98445
▁바뀌	-9.98477
▁박수를	-9.98496
▁제로	-9.98498
▁극치	-9.98501
▁결	-9.98511
▁본인	-9.98551
▁논	-9.98584
하지마라	-9.98603
▁충	-9.98629
아요	-9.98696
▁작은	-9.98706
요즘	-9.98762
하시는	-9.98826
▁오바	-9.98826
샤	-9.98834
▁착	-9.98914
▁삶에	-9.98965
흘리	-9.98974
셈	-9.98982
▁암튼	-9.98995
받고	-9.99
했었는데	-9.99009
▁손발이	-9.99051
스럽고	-9.99073
칭	-9.99127
▁카리스마	-9.99127
닉	-9.99127
▁명품	-9.99146
동생	-9.9918
▁기다리	-9.99204
▁더러운	-9.99213
▁감정을	-9.99221
▁양심	-9.9925
▁외모	-9.99261
▁좋았지만	-9.99285
▁남기	-9.9932
▁부족하다	-9.99352
연기력	-9.99354
▁죽은	-9.99385
느라	-9.99405
▁침	-9.99432
워서	-9.99436
▁무서웠	-9.99449
이라서	-9.99515
잇는	-9.99518
▁자식	-9.99533
ar	-9.99537
켜	-9.99557
한국	-9.99593
▁최대	-9.99607
하기엔	-9.99616
간의	-9.99731
아쉽	-9.9987
12	-9.99895
씨의	-9.99895
▁가능	-9.99937
이자	-9.99987
하다가	-10.0001
뉴	-10.0001
끝까지	-10.0002
칸	-10.0002
▁바꿔	-10.0002
퀴	-10.0002
▁외계인	-10.0002
▁직접	-10.0002
▁주성치	-10.0002
▁썼	-10.0004
이었음	-10.0004
▁일품	-10.0012
▁비극	-10.0014
재밌음	-10.0015
▁취향	-10.0022
▁영화인듯	-10.0023
▁방법	-10.0026
럴	-10.0033
점정도	-10.0043
얻	-10.0043
▁피해자	-10.0043
감동적	-10.0047
▁들어가	-10.0049
▁즐기	-10.0051
▁미소	-10.0052
겠어요	-10.0056
▁18	-10.0061
▁동안	-10.0063
▁싸이코	-10.0065
▁푹	-10.0068
▁어린이	-10.0075
▁독특	-10.0075
▁지루하게	-10.0079
it	-10.008
▁보지마	-10.0088
엇다	-10.009
W	-10.0092
렁	-10.0092
▁좋았으나	-10.0094
잡고	-10.0094
버려	-10.0099
▁역대급	-10.0101
모르겟	-10.0102
▁있던	-10.0103
엔딩	-10.0104
▁학교	-10.0105
▁말하고	-10.0106
▁뇌	-10.0107
제발	-10.0108
▁이하	-10.0114
▁해석	-10.0115
매력	-10.0124
고싶은	-10.0126
인건	-10.0129
▁보자	-10.0136
ᄋᄋ	-10.0141
▁괜찮다	-10.0154
▁본다면	-10.0155
르고	-10.0156
쥐	-10.0164
까지는	-10.0165
▁용기	-10.0165
▁뭐라	-10.0166
까요	-10.0166
시즌	-10.0168
율	-10.0174
것같	-10.0181
농	-10.0183
▁고양이	-10.0183
▁좋겠어요	-10.0188
▁한번쯤	-10.0191
▁다룬	-10.0191
▁철학	-10.0194
▁게다가	-10.02
▁완전히	-10.0208
▁기대했는데	-10.0212
▁의미를	-10.0219
상태	-10.0226
▁아침	-10.0229
▁아이가	-10.0231
▁주말	-10.0241
▁잊을	-10.0244
▁실제로	-10.0247
▁앤	-10.0248
▁설마	-10.0252
지않는	-10.0256
안되는	-10.0256
▁중반	-10.026
▁올라	-10.0265
콩	-10.0266
좋아하는	-10.027
▁그럴	-10.0271
슬프	-10.0273
컷	-10.0274
▁원작의	-10.0274
둔	-10.0275
▁지나치게	-10.0275
▁웃김	-10.0275
배경	-10.0276
▁일어나	-10.0279
▁웃기지도	-10.0279
ing	-10.0281
▁이유를	-10.0282
▁사랑은	-10.0288
▁볼수있	-10.0289
▁뛰어	-10.029
▁쓰레기같은	-10.029
쳤다	-10.0294
스럽게	-10.0297
▁안타깝	-10.0298
▁교육	-10.0303
출연	-10.0304
▁연기력도	-10.0305
셔서	-10.0305
▁체	-10.0312
▁비판	-10.0312
▁군	-10.0319
▁포르노	-10.0328
▁올려	-10.033
▁충격적	-10.0333
새끼들	-10.0336
▁도전	-10.0344
읽	-10.0346
▁모르	-10.0352
▁잊	-10.0359
튀	-10.0365
▁느껴진다	-10.0369
▁중에서	-10.0373
흘	-10.0382
생겼	-10.0385
년만에	-10.0386
▁많았	-10.0398
▁크리스마스	-10.0403
감독님	-10.0405
명의	-10.0408
▁사랑의	-10.0411
▁어른들	-10.0416
▁패러디	-10.0418
▁놈	-10.042
▁케이블	-10.0423
▁안나	-10.0428
V	-10.0432
▁보며	-10.0436
▁좋아해서	-10.0436
▁한명	-10.0438
꿀잼	-10.0444
님이	-10.0447
▁원작이	-10.0447
▁없지	-10.0449
중독	-10.0451
꼴	-10.0452
▁할까	-10.0452
층	-10.0461
▁남자의	-10.0462
보지	-10.0463
곳	-10.0463
▁평점보고	-10.0469
그래서	-10.0472
▁엄	-10.0474
▁십	-10.0474
▁행복한	-10.0474
▁:	-10.0475
힘	-10.0478
is	-10.0484
▁꽝	-10.0484
▁연기자들	-10.0485
하기도	-10.0493
▁모르게	-10.0494
보네	-10.0496
▁이래	-10.0499
▁진부하고	-10.0502
▁않을까	-10.0505
▁대중	-10.0507
▁상처	-10.052
▁개성	-10.052
▁잼있다	-10.0524
▁많고	-10.0527
개도	-10.0531
▁똑같은	-10.0534
▁답답한	-10.0538
▁전설의	-10.0539
▁보여준다	-10.0543
▁오글	-10.0543
아까움	-10.0548
벽	-10.0553
▁블랙	-10.0554
▁인상적이	-10.0555
▁아까울	-10.0555
▁몇몇	-10.0557
▁반개도	-10.0559
▁넘치는	-10.0559
▁봤을때	-10.056
▁모를	-10.0569
▁사랑이야기	-10.057
▁해결	-10.0572
▁왠	-10.0586
▁시청	-10.0587
▁좋아할	-10.059
▁견	-10.0591
▁합	-10.0594
치곤	-10.0596
았음	-10.0597
▁갔	-10.0599
▁무협	-10.0603
▁뿐이다	-10.0608
올리	-10.0611
▁개봉한	-10.0615
뭔가	-10.0617
받은	-10.0619
▁생각나	-10.0621
▁지루하기	-10.0624
것인가	-10.0626
공감	-10.0629
하고싶은	-10.063
ᅮᅮᅮ	-10.0637
룡	-10.0638
똥	-10.0639
▁먹고	-10.064
미치	-10.064
▁뒤로	-10.0648
껴	-10.0648
롤	-10.065
켓	-10.065
얼굴	-10.065
▁잠깐	-10.0651
냄새	-10.0651
▁훈훈한	-10.0653
▁레알	-10.0656
▁찬	-10.0662
▁곳	-10.0664
▁신경	-10.0669
▁밤	-10.0672
.........	-10.0676
▁없다는	-10.0682
▁관한	-10.0683
▁재밌다고	-10.0697
▁가득	-10.0697
적은	-10.0706
▁싶은데	-10.0706
▁무섭지도	-10.0707
버림	-10.0707
▁잭	-10.0707
살아	-10.0708
▁아프	-10.071
▁이해하기	-10.0717
▁홍콩영화	-10.0723
▁가슴에	-10.0727
▁드립니다	-10.073
▁슬	-10.073
따위	-10.0731
멘	-10.0732
0%	-10.0735
▁빨	-10.0735
▁따로	-10.0737
붕	-10.0739
▁들었다	-10.0741
겠습니다	-10.0741
략	-10.0742
않는	-10.0742
▁ᄋ	-10.0744
액	-10.0745
속의	-10.0746
▁디테일	-10.0747
뽕	-10.0747
▁젠장	-10.0747
쟁이	-10.0751
▁주기	-10.0757
▁개막장	-10.0759
▁꼽	-10.0763
▁검	-10.0766
▁간다	-10.0766
..;;	-10.0771
▁끊	-10.0772
▁쓰레기다	-10.0774
▁빠진	-10.0779
감독의	-10.0782
사람들이	-10.0784
▁감동적이다	-10.0785
부족	-10.0787
딴	-10.0792
▁오랜만	-10.0799
▁대해서	-10.0814
♥♥♥	-10.082
▁얼마	-10.0825
▁괜찮은데	-10.0831
이즈	-10.0836
▁하는거	-10.0836
사람들은	-10.0837
공포영화	-10.0837
▁아련	-10.0842
넹	-10.0844
▁스트레스	-10.0844
▁감흥	-10.0845
덤	-10.085
밤	-10.0852
▁변태	-10.0852
G	-10.0854
더빙	-10.0855
줬다	-10.0856
나오고	-10.0859
▁재미잇	-10.0862
초반	-10.0863
▁빠져들	-10.0864
오늘	-10.0865
▁보여줬	-10.0867
▁보내	-10.088
▁d	-10.0881
▁낚시	-10.0882
그래	-10.0886
▁커플	-10.0887
▁이럴	-10.0887
시길	-10.0894
▁현실이	-10.0903
으니까	-10.0903
▁왠만하면	-10.0904
▁선생님	-10.0908
▁한마디	-10.0908
어진	-10.0909
마지막에	-10.091
▁재미와	-10.0912
겠음	-10.0914
▁그녀의	-10.0921
▁이용	-10.0932
▁좋아하는데	-10.0933
빛	-10.0934
▁관점	-10.0936
쌍	-10.0937
균	-10.094
절대	-10.0941
▁이제서야	-10.0942
▁소중한	-10.0942
▁기다려	-10.0943
▁생각하면	-10.0944
붙	-10.0947
▁존경	-10.095
멍	-10.0952
푸	-10.0953
▁재밌던데	-10.0956
▁애기	-10.0961
쏘	-10.0966
기까지	-10.0971
▁갖	-10.0974
공주	-10.0976
▁막판에	-10.098
▁필름	-10.0997
때부터	-10.1002
▁실력	-10.1004
▁한국영화는	-10.1011
▁긴장감이	-10.1018
▁보려고	-10.1022
바닥	-10.1022
▁앞으로도	-10.1029
▁그거	-10.1032
나왔	-10.1033
점줌	-10.1037
▁DVD	-10.1041
▁풍경	-10.1041
▁겨우	-10.1043
▁안맞	-10.1043
▁화가	-10.1043
▁빵점	-10.1044
▁개뿔	-10.1044
▁그렇지	-10.1051
▁기자	-10.1052
논	-10.1055
어떻게	-10.1055
장애	-10.1056
▁통쾌	-10.1058
▁야동	-10.106
배우들의	-10.1064
▁감히	-10.1064
▁악마	-10.1069
!!!!!!!!!	-10.107
했다고	-10.1075
▁있었지만	-10.1081
라스	-10.1082
되네요	-10.1086
빨리	-10.1095
▁한심한	-10.1096
▁미쳤	-10.1099
잃	-10.1103
▁탑	-10.111
▁자주	-10.1129
겠네요	-10.1138
▁죽이는	-10.1138
▁추억이	-10.1139
납니다	-10.1142
왔습니다	-10.1143
▁웃기다	-10.1144
▁말도안되는	-10.1144
▁할머니	-10.1146
▁망치	-10.1151
▁속에서	-10.1153
▁점수가	-10.1154
▁짜증난다	-10.1155
겟다	-10.1157
식이	-10.1157
랜드	-10.1157
▁잼있어요	-10.1158
▁이때	-10.116
▁욕망	-10.116
▁맞아	-10.116
▁있으	-10.1164
▁전개도	-10.1166
트리	-10.1166
▁인해	-10.1171
▁웃고	-10.1175
▁봣	-10.1182
▁작가님	-10.1188
▁믿을	-10.119
편도	-10.1192
▁헛	-10.1199
▁하나의	-10.1205
▁결론	-10.1207
있냐	-10.121
▁심하게	-10.121
▁못함	-10.1212
자나	-10.1213
텔	-10.1215
짧	-10.1218
▁우리의	-10.1227
이걸	-10.1231
되나	-10.1233
▁스크린	-10.1242
▁어린시절	-10.1243
거같은데	-10.1244
보구	-10.1249
▁웬	-10.125
▁보기에	-10.1256
▁무술	-10.1256
▁있구나	-10.1257
▁보았습니다	-10.1259
▁정의	-10.1262
▁줬	-10.1262
P	-10.1269
싸움	-10.127
싶다	-10.1271
▁보긴	-10.1271
▁보여주고	-10.1272
였어	-10.1277
▁졸리	-10.129
▁없어요	-10.1295
것같아요	-10.1299
모든	-10.1305
▁할말이	-10.1309
냐고	-10.1314
자를	-10.1314
▁생각함	-10.1322
▁퍼	-10.1327
▁봤었	-10.1327
▁됨	-10.1329
▁본영화	-10.1329
볼만	-10.1331
혹은	-10.1331
스톤	-10.1333
옹	-10.1342
깜	-10.1344
다운받	-10.1346
보다도	-10.1346
▁흑인	-10.1346
▁둘이	-10.135
▁최초	-10.1351
▁짝이	-10.1356
▁깨닫게	-10.1356
▁O	-10.1357
상실	-10.136
다니는	-10.1367
▁영화보면서	-10.1368
쓸	-10.137
큰	-10.1372
흥	-10.1375
▁보통	-10.1378
▁내면	-10.1381
감정	-10.1383
▁왜이래	-10.1389
▁편견	-10.1399
편에	-10.1407
▁돼	-10.1414
몇	-10.1418
점이다	-10.1419
▁어릴	-10.1423
▁케	-10.1431
▁본방사수	-10.1432
▁장르가	-10.1434
인물	-10.1435
년도에	-10.1437
듯이	-10.144
▁쩝	-10.1441
▁비디오로	-10.1441
▁모두가	-10.1442
▁자신이	-10.1442
▁언	-10.1445
컬	-10.1446
멸	-10.1447
K	-10.1447
z	-10.1447
삐	-10.1447
▁쓰는	-10.1447
▁재미없게	-10.1448
▁2014	-10.1448
▁영원히	-10.145
▁거짓말	-10.1452
▁참신한	-10.1454
▁에이	-10.1461
▁만들면	-10.1462
현실을	-10.1465
▁아픈	-10.147
▁죽는줄	-10.1472
~!!!	-10.1472
▁떨어진다	-10.1473
▁옥	-10.1478
▁낮다	-10.1483
▁맹	-10.1486
어린	-10.1491
▁본거	-10.15
주면	-10.1506
▁세상을	-10.1506
임에도	-10.151
▁다루	-10.1515
보여	-10.1517
▁조화	-10.1519
▁않네요	-10.1521
하기만	-10.1529
쾌	-10.1534
검	-10.1536
▁영화보는	-10.1539
▁아내	-10.1542
받아서	-10.1544
▁재미있었	-10.1548
▁심각	-10.1549
셀	-10.1551
버전	-10.1554
▁우리는	-10.1554
▁전쟁영화	-10.1555
▁방영	-10.1564
▁색감	-10.1573
▁위해서	-10.1576
▁잊을수	-10.1579
▁불러	-10.1583
▁할수	-10.1587
▁있는지	-10.1591
▁봉	-10.1591
▁위로	-10.1592
보지말	-10.1593
▁소름이	-10.1599
▁못하다	-10.1606
제작	-10.1607
▁명작입니다	-10.1618
옴	-10.1621
▁봤을	-10.1621
▁시리즈중	-10.1629
▁끄	-10.163
도아니고	-10.1637
▁어이	-10.1655
ᄇ	-10.1655
쿨	-10.1656
▁동성애	-10.1656
손가락	-10.1657
▁특별한	-10.166
▁바꾸	-10.166
거리는	-10.166
당한	-10.1662
▁콩	-10.1664
▁화려하	-10.1665
▁관객을	-10.1666
생활	-10.1668
▁형님	-10.167
▁평론가들	-10.1671
하겠다	-10.1684
▁사진	-10.1685
▁캐릭터가	-10.1686
▁생각나서	-10.1695
▁감안	-10.1695
모두	-10.1697
그만	-10.1703
잔잔	-10.1714
▁시간가는줄	-10.1714
소설	-10.1719
부분이	-10.172
▁야구	-10.1721
좋앗	-10.1721
티비	-10.1722
▁받는	-10.173
안됨	-10.173
▁어쩔수	-10.173
ᄏᄏᄏᄏᄏᄏᄏᄏᄏᄏᄏᄏᄏ	-10.1734
머니	-10.1739
▁옷	-10.1746
▁국가	-10.1748
건가요	-10.1748
▁재난영화	-10.1755
▁조작	-10.1756
학년	-10.1757
묵	-10.1762
▁잔뜩	-10.1763
▁정도의	-10.1764
▁여러가지	-10.1765
뭐야	-10.1765
▁모험	-10.1767
▁색	-10.1768
▁오로	-10.1769
▁하늘	-10.1771
▁알겠는데	-10.1772
▁빌	-10.1772
▁단어	-10.1778
▁대놓고	-10.1778
▁몇번	-10.1779
▁심심	-10.1779
▁ᄏᄏᄏᄏᄏᄏ	-10.1779
30	-10.1784
요소	-10.1786
▁그건	-10.1787
▁자신을	-10.1788
▁11	-10.1794
▁배우를	-10.1795
자리	-10.1796
▁영혼	-10.18
▁흥	-10.1804
허접	-10.1808
솔직히	-10.1809
돋	-10.1809
어디	-10.1811
L	-10.1811
▁나은	-10.1823
▁훌륭하다	-10.1823
▁만든영화	-10.1823
했지	-10.1824
▁느꼈다	-10.1828
▁몇년	-10.1828
분은	-10.183
신고	-10.184
▁작품은	-10.185
물을	-10.1862
▁가치가	-10.1868
▁부모님	-10.1869
숭	-10.187
▁안타까운	-10.187
▁무엇인지	-10.1874
▁다르다	-10.1875
▁억지스러운	-10.1877
▁여름	-10.1878
▁액션씬	-10.1883
▁만들다니	-10.1892
▁도망	-10.1894
▁멋지	-10.1897
▁없습니다	-10.1902
▁감동의	-10.1903
▁이것이	-10.1907
▁중요	-10.1908
없어서	-10.191
▁효과	-10.1912
▁잼없	-10.1912
X	-10.1913
▁비하면	-10.1915
▁최고였다	-10.192
▁있었는데	-10.192
랄까	-10.1921
▁보지마라	-10.1923
▁대본	-10.1926
야할	-10.1926
▁분들은	-10.1934
▁제외	-10.1934
좋음	-10.1935
스키	-10.1939
았는데	-10.1942
극장	-10.1945
▁촌스럽	-10.1947
▁이런영화를	-10.1951
▁아예	-10.1953
▁빠지	-10.1957
오글	-10.1958
지도않고	-10.1959
하길	-10.1962
닐	-10.1963
▁쿠	-10.1967
▁형사	-10.1971
춰	-10.1976
▁척	-10.1978
렷	-10.1979
쥬	-10.1979
▁짜임새	-10.1979
▁아이디어	-10.1979
▁색다른	-10.198
▁문제가	-10.1981
만듬	-10.1988
▁비밀	-10.1989
▁모르겠음	-10.1997
▁최근에	-10.2
▁갖고	-10.2001
▁쥐	-10.2002
▁살아가는	-10.2002
▁이래서	-10.2003
적이다	-10.2006
▁명화	-10.2007
보이는	-10.2008
▁나머지	-10.2008
▁등등	-10.2012
▁배역	-10.2018
▁끈	-10.2021
사건	-10.2026
앞에서	-10.2027
주연	-10.204
개그	-10.2045
만하다	-10.2067
▁노래도	-10.2068
도대체	-10.2076
▁높게	-10.2078
거같아요	-10.208
닿	-10.2084
헌	-10.2085
▁거기에	-10.2087
랫	-10.2089
ᅥ	-10.2089
▁아닙니다	-10.2089
찔	-10.2089
▁제임스	-10.2089
▁sf	-10.209
▁극장가서	-10.2091
▁그저그런	-10.2094
▁분위기가	-10.21
훈훈	-10.2108
▁하나같이	-10.2109
▁21	-10.211
▁사고	-10.2111
때매	-10.2113
큐	-10.2113
▁기대이상	-10.2114
여주	-10.2118
고싶어	-10.2122
▁답답하고	-10.213
있습니다	-10.2132
19	-10.2135
같고	-10.2141
▁돌리	-10.2142
▁D	-10.2145
▁에로영화	-10.2146
찾	-10.2147
덜	-10.2148
▁재미없었다	-10.2151
▁지나도	-10.2153
▁뭐하나	-10.2153
▁감정이	-10.2154
쓰레기영화	-10.2157
▁죽을	-10.2158
▁수준의	-10.2158
▁술	-10.217
챙겨	-10.2175
▁뛰어나	-10.2177
▁다운	-10.2179
▁싶을	-10.2183
▁집에	-10.2184
장르	-10.2187
▁출연한	-10.2194
▁영상이	-10.2196
엽	-10.2197
▁블록버스터	-10.22
U	-10.22
▁소소한	-10.22
▁후속작	-10.22
▁잔혹	-10.2201
▁감정이입	-10.2202
▁라고	-10.2205
▁낚였다	-10.2205
▁남자주인공	-10.2208
지요	-10.2208
▁개연성도	-10.2209
겼	-10.2212
▁이따위	-10.2212
▁또다른	-10.2213
▁성격	-10.2213
▁의미가	-10.2214
▁부실	-10.2219
▁재미있습니다	-10.2221
▁외국	-10.2222
▁듣고	-10.2226
▁아역	-10.2226
▁엉성하고	-10.2227
▁맡	-10.2228
야겠다	-10.223
▁가정	-10.2231
지않아	-10.2232
이름	-10.2234
▁낙	-10.2238
▁촌	-10.2243
영화인데	-10.2244
▁기준	-10.2246
놈이	-10.2252
▁여운을	-10.2254
▁끝났	-10.2254
쓰고	-10.2256
▁예쁘고	-10.2257
본사람	-10.2257
▁결정	-10.2259
커플	-10.227
▁니들	-10.2274
브라	-10.2274
▁연출과	-10.2279
▁죽인	-10.2281
▁추리	-10.2286
대단	-10.2302
▁정말이지	-10.2303
▁울컥	-10.2312
생각이	-10.2314
▁충실	-10.2315
▁결코	-10.2315
▁어쩜	-10.2316
▁연극	-10.2329
▁오래된	-10.233
▁왔	-10.2331
본영화	-10.2332
받아	-10.2332
..........	-10.2332
▁열연	-10.2332
▁남은	-10.2335
▁전설	-10.2337
였으면	-10.2338
▁낮네	-10.2341
▁막장드라마	-10.2348
▁슬퍼	-10.235
▁아니야	-10.2358
햇다	-10.236
덕에	-10.2364
되었다	-10.2367
끼리	-10.2367
▁밝	-10.2376
관객	-10.2381
▁폴	-10.2384
하하하	-10.2385
헐	-10.2386
▁알려	-10.2391
▁볼게	-10.2393
▁p	-10.2397
▁낮아	-10.2398
보니까	-10.2402
마냥	-10.2403
▁싸움	-10.2406
쓰는	-10.2408
▁매력을	-10.2409
▁푸	-10.2412
▁많은데	-10.2413
않다	-10.2414
▁가면	-10.2422
▁됩니다	-10.2426
▁잘봤어요	-10.2426
▁최고임	-10.243
▁감각	-10.2432
▁데리고	-10.2432
▁적당히	-10.2433
▁좋겠	-10.2436
▁만남	-10.2443
▁오빠	-10.2451
▁잼나게	-10.2456
▁길게	-10.2459
▁가족영화	-10.246
▁예쁘	-10.2462
후에	-10.248
▁남자들	-10.248
아빠	-10.2482
▁먼가	-10.2485
기전에	-10.2487
▁L	-10.2489
▁그당시	-10.2495
▁반전은	-10.2495
비디오	-10.2501
▁식상한	-10.2503
<	-10.2505
▁가슴을	-10.2506
▁공포물	-10.2507
▁노래가	-10.2507
찡	-10.2511
왓	-10.2519
부러	-10.252
▁다운받아	-10.2522
두고	-10.2524
ut	-10.2525
없는영화	-10.2532
객	-10.2534
재미없음	-10.2535
▁결말을	-10.2535
혼자	-10.2538
룩	-10.2541
뽀	-10.2541
컴	-10.2541
▁탄생	-10.2542
▁풍자	-10.2547
▁흔들	-10.2548
▁승리	-10.2551
믿	-10.2553
야한다	-10.2559
주고싶다	-10.256
▁매력적	-10.2563
했다면	-10.2565
▁두고	-10.2566
bb	-10.2567
▁집중해서	-10.2568
같네	-10.2569
었을	-10.257
다음	-10.2573
년작	-10.2584
▁요리	-10.2585
뻔한	-10.2587
▁별로임	-10.259
었네요	-10.259
▁방식	-10.2593
▁보려	-10.2594
▁아래	-10.2595
▁만한	-10.2599
점이상	-10.26
게임	-10.26
▁봅니다	-10.2608
▁죽이고	-10.2609
벗	-10.262
▁특이	-10.2623
▁찾아보	-10.2623
아저씨	-10.2624
갑니다	-10.2626
▁현실적이	-10.2627
▁구성이	-10.2628
뇌	-10.2633
▁싸우는	-10.264
▁봤네	-10.2641
▁마이	-10.2644
▁의문	-10.2647
렵	-10.2653
▁애들은	-10.2657
찐	-10.2657
▁아류작	-10.2657
▁즐거웠	-10.2657
▁다양한	-10.2658
▁아무런	-10.2661
씬이	-10.2662
▁그만큼	-10.2663
▁살다살다	-10.2664
▁만들었는지	-10.2666
지루함	-10.2668
▁떨	-10.2673
▁허술	-10.2674
보셈	-10.2676
▁엿	-10.2677
▁살면서	-10.2687
턴	-10.269
▁수많은	-10.2691
▁주인공은	-10.2693
번은	-10.2693
▁안볼	-10.27
▁생각했는데	-10.2702
▁만들수	-10.2706
▁기독교	-10.2707
는거야	-10.2713
▁내용인지	-10.2713
▁잘만들었	-10.2722
못해	-10.2725
▁낮게	-10.2731
영화입니다	-10.2731
▁여러분	-10.2732
▁변화	-10.2734
▁안습	-10.2734
▁대단하	-10.2737
▁f	-10.2743
▁헬	-10.2753
▁마지막장면	-10.2754
▁사상	-10.2755
▁멍	-10.2759
후회	-10.2768
▁로버트	-10.2775
▁집착	-10.2776
▁바랍니다	-10.2776
▁짧은	-10.2777
조금	-10.2778
♡♡	-10.278
▁남네요	-10.2781
▁담배	-10.2781
▁돈을	-10.2781
둥이	-10.2785
법한	-10.2786
갔는데	-10.279
여행	-10.279
▁조절	-10.28
▁넌	-10.2801
▁볼수있는	-10.2801
겠죠	-10.2802
기법	-10.2806
▁잼잇	-10.2808
▁신파	-10.2808
es	-10.2809
▁조카	-10.2812
▁응	-10.2819
▁빼면	-10.2821
▁느껴지	-10.2822
받았	-10.2824
하는영화	-10.2824
▁놀랍다	-10.2831
▁살린	-10.2835
80	-10.2836
▁그자체	-10.2837
했었	-10.2838
▁밋밋	-10.2843
▁한국에서	-10.285
▁냉	-10.2855
▁몰랐다	-10.2858
거죠	-10.2861
널	-10.2865
갓	-10.287
▁핵노잼	-10.2873
▁내가본	-10.2874
▁이상하게	-10.2875
▁G	-10.2879
▁손에	-10.2879
▁뭘까	-10.288
▁책을	-10.2882
둥	-10.2883
보기싫	-10.2888
수없는	-10.2889
평가	-10.2891
▁잘하는	-10.2891
할만한	-10.2891
▁보기에는	-10.2892
▁뭐니	-10.2893
엑	-10.2894
핑	-10.2894
벼	-10.2894
▁플롯	-10.2894
▁특수효과	-10.2894
▁샘	-10.2894
▁니콜	-10.2895
어여	-10.2895
▁앞뒤	-10.2895
해야할	-10.29
▁놀라운	-10.2901
▁궁	-10.2903
▁낮지	-10.2909
▁치고	-10.2909
▁생긴	-10.2913
았어요	-10.2919
완성	-10.2919
▁운명	-10.2924
▁원작에	-10.2924
▁궁금하다	-10.2926
▁북	-10.2934
▁등장인물	-10.2935
▁주기도	-10.2936
▁솔직	-10.2938
▁코미디영화	-10.294
스크	-10.2942
이었습니다	-10.2948
점대는	-10.2951
▁인도	-10.2957
▁199	-10.2958
▁형편없	-10.2966
것만으로도	-10.2968
배우가	-10.2968
▁신비	-10.2969
▁생활	-10.2972
있었다	-10.2976
▁망친	-10.2976
거같음	-10.2979
것같은	-10.2991
오르	-10.2991
▁새로	-10.2995
▁예쁘다	-10.2996
▁과정	-10.2996
▁인상적	-10.3001
▁거리	-10.3002
▁자리	-10.3006
▁ᄀ	-10.3011
필요없	-10.3011
찮	-10.3013
핀	-10.3014
긋	-10.3014
▁러시아	-10.3014
▁교과서	-10.3014
▁끔찍	-10.3014
▁심지어	-10.3015
▁위험	-10.3017
부분은	-10.3019
▁여자친구	-10.3022
▁좀비영화	-10.3024
▁짜증만	-10.3025
재밌어	-10.3026
▁해라	-10.303
▁좋겠네요	-10.3031
▁주제를	-10.3035
▁반대	-10.3036
▁꽤나	-10.3038
!!!!!!!!!!!!!!!!	-10.3039
▁재미도없고	-10.3044
▁아쉽지만	-10.3045
▁부분도	-10.3052
라는걸	-10.3056
듣	-10.3059
▁않아서	-10.306
ᄏᄏᄏᄏᄏᄏᄏᄏᄏᄏ	-10.3061
▁마지막까지	-10.3063
▁잠이	-10.3064
▁안맞는	-10.3066
▁교훈을	-10.3067
40	-10.3069
▁여주가	-10.3071
▁잼나	-10.3074
쳐서	-10.3076
뿐이다	-10.3083
▁와닿	-10.3086
이뻐	-10.3092
어지는	-10.3092
▁때려	-10.3093
▁몽	-10.3095
든지	-10.3102
▁소설을	-10.3103
▁연기력은	-10.3105
▁잘하고	-10.3109
F	-10.3114
긴장감	-10.3116
▁불쌍하다	-10.3117
▁몰라	-10.3117
흠	-10.3118
촌	-10.3123
좋았다	-10.3126
픽	-10.3132
좌	-10.3135
관람	-10.3136
▁가벼운	-10.3136
▁반드시	-10.3136
▁보아	-10.3138
▁첫사랑	-10.3142
▁담겨	-10.3144
▁어느정도	-10.3147
▁봤을까	-10.3147
▁무료	-10.3152
옆	-10.3152
▁순수함	-10.3153
▁캬	-10.3154
▁따분	-10.3158
▁있다니	-10.317
▁아까웠다	-10.3171
▁어처구니	-10.3172
▁욕심	-10.3174
▁호구	-10.3174
▁폐	-10.3181
▁최고로	-10.3184
▁정작	-10.3192
▁확인	-10.3193
▁60	-10.3193
▁폐지	-10.3194
▁안본	-10.32
▁매일	-10.3205
보고싶다	-10.3206
▁없으면	-10.3207
▁휘	-10.3216
▁어울리는	-10.3218
▁자체는	-10.322
▁떨어지고	-10.3221
지말자	-10.3223
깝	-10.3225
▁넘게	-10.3233
▁처음에는	-10.3234
▁목적	-10.3237
▁일반	-10.3238
▁내용과	-10.324
이든	-10.3245
궁	-10.3247
팀	-10.3247
당시	-10.3247
화이팅	-10.3248
긴하지만	-10.3251
신분	-10.3257
졸작	-10.3257
▁언니	-10.3258
것처럼	-10.3259
▁역사를	-10.3259
▁임팩트	-10.326
퓨	-10.326
▁주윤발	-10.326
▁인내심	-10.326
▁짜집기	-10.326
▁어설프고	-10.3261
▁으리	-10.3263
스토리도	-10.3263
▁시청률이	-10.3265
▁신선하	-10.3268
▁여자주인공	-10.327
▁한숨	-10.327
▁태어나서	-10.327
▁크리스	-10.3271
▁삶이	-10.3272
▁그야말로	-10.3272
싫어	-10.3273
스럽지	-10.3274
▁말하고자	-10.3279
▁약간의	-10.3284
▁아름답게	-10.3288
▁버리	-10.329
▁책임	-10.3292
또한	-10.3299
▁불편한	-10.3307
▁여전	-10.3307
▁짜증나서	-10.3313
▁무리	-10.3318
▁그립다	-10.3322
▁줄수	-10.3338
▁포스터가	-10.3341
라지만	-10.3343
▁모른다	-10.3347
▁당신은	-10.3348
씨는	-10.335
▁볼때	-10.3352
▁다시보니	-10.3354
맥	-10.3358
보는게	-10.3365
삶	-10.337
▁맞지	-10.3372
할것	-10.3375
▁한편의	-10.3376
▁러닝타임	-10.3378
만드네	-10.3378
빌	-10.3378
방식	-10.338
▁아닐	-10.3382
▁포스	-10.3384
^-^	-10.3385
▁해리포터	-10.3385
▁쓸데없이	-10.3385
탱	-10.3385
▁장국영	-10.3385
▁유일한	-10.3386
▁당연히	-10.3389
▁1,2	-10.3389
시오	-10.3391
▁일부러	-10.3394
▁첨엔	-10.3396
▁나름대로	-10.34
▁친구가	-10.3402
▁이딴걸	-10.3403
떨	-10.3409
▁빵	-10.3409
▁아까운영화	-10.3412
▁귀여워	-10.3414
▁강렬한	-10.3417
거같	-10.3422
같아서	-10.3425
▁이야기는	-10.3426
재미도	-10.3426
류의	-10.3428
▁생각으로	-10.3429
▁심장	-10.3429
▁명장면	-10.3437
같은영화	-10.3438
웨이	-10.3439
▁많은걸	-10.3439
▁업	-10.3442
사를	-10.3442
▁배신	-10.3445
▁타고	-10.3447
▁상업	-10.3448
▁시리즈는	-10.3458
아무튼	-10.3459
달아	-10.346
사라	-10.346
될듯	-10.3461
▁아름답	-10.3462
▁했으면	-10.3463
▁선물	-10.3467
▁가져	-10.3467
▁엘	-10.3469
▁난해하	-10.3472
이러	-10.3474
▁보다는	-10.3477
▁엉망이	-10.3478
▁멋졌	-10.3483
▁영화화	-10.3483
▁명작을	-10.3494
었나	-10.3501
로드	-10.3504
굳	-10.3504
느껴	-10.3505
▁ᄍᄍᄍ	-10.3506
꾼	-10.3508
▁하나로	-10.3509
▁소재도	-10.351
보여주	-10.3511
▁설득력	-10.3511
▁배트맨	-10.3511
▁심형래	-10.3511
▁유일하게	-10.3511
▁of	-10.3512
는구나	-10.3512
포스터	-10.3514
▁근래	-10.352
▁로코	-10.352
▁죽었	-10.3524
▁시간아깝다	-10.3526
▁희망을	-10.3528
▁때문	-10.3531
언제	-10.3535
보인다	-10.3539
▁어른이	-10.3539
▁기회	-10.3542
▁어렵다	-10.3542
as	-10.3552
▁엔딩이	-10.3557
▁모든걸	-10.356
▁레이	-10.3561
▁피해	-10.3563
주기	-10.3565
제로	-10.3567
듯하다	-10.357
▁연기자	-10.3571
▁보던	-10.3572
▁바다	-10.3585
▁조선	-10.3586
▁수작이다	-10.359
▁재미없어서	-10.3593
▁소년	-10.3594
▁만든거	-10.3598
▁음식	-10.3601
레스	-10.3601
▁무엇	-10.3606
▁수입	-10.3607
못하는	-10.3608
▁가족이	-10.3612
▁한번도	-10.3615
▁ᄏᄏᄏᄏᄏᄏᄏ	-10.3621
▁영화인지	-10.3623
본영화중	-10.3628
쩜	-10.3635
려나	-10.3636
▁틀어	-10.3638
딘	-10.3639
ᄁ	-10.3639
▁뱀파이어	-10.3639
땀	-10.3639
▁dvd	-10.3639
▁you	-10.3639
▁내생에	-10.364
갠적으로	-10.3642
▁웃으면서	-10.3643
시나리오	-10.3643
▁괜찮았다	-10.3643
걍	-10.3643
▁배경음악	-10.3644
▁할아버지	-10.3645
▁m	-10.3648
곳에	-10.3652
베리	-10.3654
였나	-10.3656
▁따뜻하고	-10.3657
역사	-10.3658
▁괜찮음	-10.366
▁꼬마	-10.366
▁나에겐	-10.3665
▁케이블에서	-10.3668
낫	-10.3669
에대해	-10.3677
▁많아서	-10.3678
▁쉬	-10.3678
▁쓰고	-10.3679
▁영상과	-10.3679
▁기억나는	-10.368
▁새벽에	-10.3686
테러	-10.3686
▁최고의영화	-10.3688
▁보다니	-10.3692
맞는	-10.3693
저리	-10.3694
▁가수	-10.3697
능력	-10.3705
알아	-10.3708
▁이해할수	-10.3715
먹은	-10.372
육	-10.3721
미국	-10.3722
▁나랑	-10.3726
▁이상하고	-10.3728
▁오락영화	-10.3731
▁느낌의	-10.3732
씀	-10.3733
▁남았	-10.3734
오브	-10.3735
높은	-10.3735
▁상대	-10.3736
▁혹시	-10.374
▁흐르는	-10.3741
▁강한	-10.3745
▁배우들은	-10.375
말아먹	-10.3753
좋은영화	-10.3758
ᅮᅲ	-10.3762
100	-10.3764
▁재미로	-10.3768
셋	-10.3769
깃	-10.3769
뗄	-10.3769
▁이소룡	-10.3769
▁홍상수	-10.3769
▁빵빵	-10.377
▁장면도	-10.3771
▁착각	-10.3771
아버지	-10.3772
▁돋보이는	-10.3772
▁잤다	-10.3773
▁격	-10.3774
▁본게	-10.3777
꿈	-10.3778
▁이런건	-10.3782
톤	-10.3783
▁울리는	-10.3785
웃김	-10.3786
▁처음에	-10.3786
주고싶	-10.3786
할뿐	-10.3787
▁동양	-10.3789
받을	-10.379
연기는	-10.3802
▁동심	-10.3804
보긴	-10.3804
멜로	-10.3806
있지	-10.3806
었네	-10.3806
지훈	-10.3811
▁저급	-10.3821
▁생각할	-10.3824
▁봐야하는	-10.3827
뭔	-10.3844
▁밀려	-10.3846
▁슬펐	-10.3847
▁영화인가	-10.3848
약한	-10.3848
하군	-10.3849
le	-10.385
▁곧	-10.3851
▁재밌어서	-10.3852
▁짜증이	-10.3855
▁포인트	-10.3856
▁어디에	-10.3859
▁살아있	-10.3866
▁보이지	-10.3871
▁감동은	-10.3871
배우들이	-10.3871
재미있게	-10.3874
조아	-10.3874
▁한국의	-10.3875
이었던	-10.388
못보겠	-10.3881
............	-10.389
없네요	-10.3891
먹어	-10.3893
▁있네	-10.3894
조연	-10.3895
럭	-10.3901
▁고등학교	-10.3901
▁대통령	-10.3901
▁조니뎁	-10.3901
▁할리우드	-10.3901
젖	-10.3901
▁숨겨진	-10.3901
▁아깝고	-10.3901
▁부끄러	-10.3901
▁제이슨	-10.3901
▁영환데	-10.3902
...........	-10.3903
▁맞춰	-10.3903
치고는	-10.3907
▁어째	-10.3908
몸	-10.391
▁이해를	-10.391
캐스팅	-10.3911
추억	-10.3912
▁두번째	-10.3912
분위기	-10.3913
▁받은	-10.3914
▁여자의	-10.3917
▁잘못된	-10.3919
▁좋네	-10.3919
목소리	-10.3921
▁살리	-10.3921
느끼	-10.3922
▁현실과	-10.3928
아프	-10.393
▁독일	-10.3932
놀이	-10.3932
드립니다	-10.3935
찾기	-10.3935
▁아쉬움이	-10.3936
▁^	-10.3936
▁우연	-10.3938
▁없었음	-10.3941
▁난잡	-10.3945
▁놓고	-10.3947
▁톰	-10.3947
▁후에	-10.3949
보시길	-10.3956
▁싶어요	-10.3957
았지만	-10.3958
일듯	-10.3959
▁잘만들	-10.3963
▁가족들	-10.3964
▁부부	-10.3969
▁오글거리	-10.397
▁섬	-10.397
!!!!!!	-10.3977
▁주제가	-10.3981
었는지	-10.3983
▁재미있을	-10.3983
▁초딩때	-10.3986
▁하아	-10.3989
▁장면들	-10.3999
어색	-10.4011
▁정보	-10.4014
▁마음으로	-10.4016
▁재밋어요	-10.4017
▁삼류영화	-10.4018
▁연인	-10.4025
▁들고	-10.4026
▁실화를	-10.4029
젊	-10.4032
짤	-10.4034
▁늑대	-10.4035
▁과학	-10.404
▁언제봐도	-10.4041
▁여러번	-10.4042
▁다섯	-10.4044
▁디워	-10.4046
▁단순히	-10.4048
▁재능	-10.4048
▁사라지	-10.4049
장면은	-10.4049
▁의사	-10.4051
▁하길래	-10.4053
춤	-10.4054
메이	-10.4054
▁개노잼	-10.4054
▁공감할	-10.4057
▁마약	-10.4058
▁혹시나	-10.4065
하는건지	-10.4068
▁충분	-10.407
▁갔다	-10.4075
더라면	-10.4077
극장에서	-10.4081
▁클레멘타인	-10.4091
▁어색하고	-10.4099
ᄍ	-10.4103
▁발상	-10.4106
▁실수	-10.4107
▁안간다	-10.4109
-_-;	-10.4116
틴	-10.4121
▁검색	-10.4124
▁제목만	-10.4125
15	-10.4128
▁같지	-10.4133
▁장면을	-10.4142
데요	-10.4144
▁머리가	-10.4147
아까운	-10.4155
재밌는	-10.4155
려다가	-10.4155
▁인생에	-10.4158
▁유치해	-10.416
낭	-10.4161
▁정상	-10.4162
▁진수	-10.4163
▁아니지	-10.4166
납	-10.4167
폼	-10.4168
곱	-10.4169
눌	-10.4169
▁컴퓨터	-10.4169
뎅	-10.4169
밴	-10.4169
템	-10.4169
부끄럽	-10.4169
▁깜짝	-10.4169
▁희대의	-10.4169
▁박진감	-10.4169
▁사운드	-10.4169
하니까	-10.4169
▁익숙	-10.417
▁=	-10.417
▁떨어짐	-10.417
▁뭐하자는	-10.4171
▁빠른	-10.4171
▁실험	-10.4172
▁처절	-10.4174
▁시간만	-10.4175
▁서양	-10.4176
▁하다가	-10.4179
▁넘치	-10.4184
▁짜증남	-10.4185
▁F	-10.4192
같지	-10.4193
칼	-10.4193
으려고	-10.4196
엄청	-10.4198
▁엄마가	-10.4204
▁모르겠네요	-10.4206
▁없나요	-10.421
차이	-10.4217
▁예능	-10.4222
보소	-10.4223
▁다르게	-10.4224
▁잼있음	-10.4227
▁불쌍한	-10.423
▁아냐	-10.4232
▁터미네이터	-10.4232
▁지겹다	-10.4235
모르고	-10.4237
▁중심	-10.4243
▁멋지고	-10.4244
▁X	-10.4252
바라	-10.4254
▁만들기	-10.4255
▁하는게	-10.4259
▁사용	-10.4263
▁세상이	-10.4264
▁별로고	-10.4268
▁점수는	-10.4268
en	-10.4272
갈때	-10.4276
올라	-10.4282
른다	-10.4283
▁거장	-10.4287
▁안봐도	-10.4287
기도하고	-10.4291
섹	-10.4292
▁나네요	-10.43
▁움직이	-10.4306
▁제니퍼	-10.4306
▁이토록	-10.4306
▁조잡	-10.4307
▁이뻐서	-10.4307
▁줍니다	-10.4308
▁응원	-10.4311
분만에	-10.4312
▁상영관	-10.4313
줄알았는데	-10.4314
▁판단	-10.4315
▁매니아	-10.4321
▁최고봉	-10.4324
▁봐도봐도	-10.433
♥♥♥♥	-10.4332
▁멋있는	-10.434
▁봤다면	-10.4343
▁높아서	-10.4346
▁그것도	-10.4347
▁그동안	-10.4349
내용은	-10.4352
▁아니라고	-10.4354
▁깔	-10.4357
▁주연배우	-10.4362
▁논리	-10.4371
▁반전을	-10.4381
제대로	-10.4383
스러웠	-10.4384
▁달려	-10.4386
▁느꼈	-10.439
▁있다고	-10.4391
▁앞에	-10.4393
표정	-10.4397
▁알겠다	-10.4398
▁사투리	-10.4398
구리	-10.44
우스	-10.4412
차별	-10.4412
▁울었	-10.4413
▁슈	-10.4418
▁아이들과	-10.4419
하시길	-10.4431
▁내게	-10.4431
여운이	-10.4438
▁이런영화는	-10.4439
스카	-10.4441
▁감독을	-10.4441
▁ᄏᄏᄏᄏᄏᄏᄏᄏ	-10.4442
할수가	-10.4443
뜬	-10.4445
ᄎ	-10.4445
쿵	-10.4445
팍	-10.4445
▁네티즌	-10.4445
앨	-10.4445
▁쉽지	-10.4445
▁도무지	-10.4445
어용	-10.4461
▁내용전개	-10.4462
곳에서	-10.4462
▁맛이	-10.447
못하고	-10.4476
▁하지원	-10.4478
▁궁금해서	-10.4479
▁그럴듯	-10.448
▁집중이	-10.4484
▁이루	-10.4489
웃겨	-10.449
▁재밋음	-10.4493
▁내일	-10.4493
▁정신병자	-10.4494
▁싸우	-10.4497
모자	-10.4498
▁보라	-10.45
물로	-10.4504
하지마	-10.4508
애들이	-10.4508
준호	-10.4514
있지만	-10.4516
▁어디가	-10.4517
열받	-10.4528
기에는	-10.453
하지말고	-10.453
하거나	-10.4544
있는영화	-10.4546
▁알겠	-10.455
▁잡아	-10.4556
뭐냐	-10.4557
▁끝에	-10.4561
▁얼굴이	-10.4565
려다	-10.4566
▁작품입니다	-10.4572
▁현실감	-10.4574
~~!!	-10.4576
것보다	-10.4578
낀	-10.4583
▁재미있어	-10.4583
하기에	-10.4585
삭	-10.4586
▁왤케	-10.4586
닷	-10.4586
▁아놀드	-10.4586
▁흑백	-10.4586
▁하정우	-10.4586
▁없게	-10.4588
▁폭풍	-10.4589
▁여주인공이	-10.459
▁재개봉	-10.4591
▁만화책	-10.4592
▁to	-10.4592
분을	-10.4592
▁루즈	-10.4592
▁폭발	-10.4593
▁배우도	-10.4593
▁떼	-10.4593
▁메이	-10.4594
al	-10.4594
트로	-10.4594
▁2000	-10.4596
▁거북	-10.4596
▁오브	-10.4596
▁공짜로	-10.4601
▁재미없을	-10.4602
▁괜찮았는데	-10.4603
▁반담	-10.4607
▁하품	-10.4608
▁짜증나고	-10.4609
나왓	-10.4613
불쌍	-10.4618
꽃	-10.4621
▁배경이	-10.4622
앤	-10.4627
탑	-10.4629
▁잊고	-10.4631
▁갑니다	-10.4632
어이없	-10.4634
▁뭣	-10.4635
▁인형	-10.4635
드립	-10.4636
▁공간	-10.4644
멋있	-10.4646
아무리	-10.4646
▁쭉	-10.4646
▁배우는	-10.4649
▁기타	-10.4653
때까지	-10.4657
▁말자	-10.4659
류영화	-10.4661
▁사랑해	-10.4662
▁불안	-10.4662
▁이드라마	-10.4668
▁찾는	-10.4672
▁허술한	-10.4678
▁사람도	-10.4685
▁부정	-10.4688
▁겁	-10.4702
만큼이나	-10.4703
▁박수	-10.4703
▁설정이	-10.4717
▁대신	-10.4718
▁보게된	-10.472
흡	-10.4722
▁사랑한다	-10.4723
▁이상해	-10.4725
깍	-10.4727
▁쓸데없는	-10.4729
▁나레이션	-10.4729
▁컨셉	-10.4729
▁Good	-10.4729
▁뭥미	-10.4729
덩어리	-10.4729
▁소중함을	-10.473
▁꿈꾸	-10.4731
▁각색	-10.4733
▁환경	-10.4736
▁극복	-10.4736
▁적어도	-10.4737
▁무엇인가	-10.4739
드만	-10.4741
▁이루어	-10.4742
▁빅	-10.4744
상영	-10.475
▁벤	-10.4753
▁어거지	-10.4754
▁잔잔하게	-10.4756
씁쓸	-10.4762
▁탈출	-10.4764
▁평소	-10.4764
▁스릴도	-10.4765
햇는데	-10.4767
▁죽고	-10.4771
휘	-10.4777
포인트	-10.4778
개인적으로	-10.4779
뭘	-10.4779
범죄	-10.4782
▁이름이	-10.4789
▁마지막회	-10.4792
비슷	-10.4793
▁기대없이	-10.4793
▁여자애	-10.4796
소름	-10.4798
▁쩔어	-10.4799
▁케릭터	-10.4801
▁김치	-10.4803
▁아우	-10.4805
앞으로	-10.4807
▁결론은	-10.4808
▁가득한	-10.4811
▁없냐	-10.4811
▁볼만했다	-10.4811
▁미스	-10.4813
엇는데	-10.4815
▁정신없	-10.4816
▁읽어	-10.4817
▁영상미가	-10.4824
발랄	-10.4829
▁즐	-10.4834
렬	-10.4834
▁연출은	-10.4837
발연기	-10.484
▁뒤에	-10.4847
▁테러	-10.4854
▁귀엽다	-10.4854
▁난리	-10.4856
맞고	-10.4858
▁가능한	-10.4864
있던	-10.4865
굿굿굿	-10.4869
^^*	-10.487
▁넣어	-10.4871
갱	-10.4874
뚝	-10.4874
랩	-10.4874
랭	-10.4874
▁명불허전	-10.4874
▁오프닝	-10.4874
웟	-10.4874
뻥	-10.4874
▁리얼리티	-10.4874
▁명복을	-10.4874
▁걱정	-10.4874
▁달콤	-10.4875
▁평균	-10.4877
▁끌고	-10.4877
▁명대사	-10.4878
▁만약	-10.488
▁얘	-10.4881
▁돈내고	-10.4882
▁무겁	-10.4883
▁믿고보는	-10.4883
▁빛을	-10.4884
▁부럽	-10.4884
▁따위	-10.4887
▁담은	-10.4889
▁오랫만에	-10.4891
▁같고	-10.4891
자마자	-10.4891
▁일본인	-10.4892
존나	-10.4894
▁부담	-10.4896
▁유행	-10.4898
▁영화라니	-10.49
세여	-10.49
▁유쾌하게	-10.4901
▁손발	-10.4903
▁기가	-10.4907
▁진부	-10.4909
▁뻔하	-10.491
▁않았지만	-10.4923
▁관련	-10.4928
▁본건데	-10.4932
500	-10.4934
▁히어로	-10.4936
바람	-10.4937
~~^^	-10.4944
낮은	-10.4945
▁우뢰매	-10.4947
▁소화	-10.4948
▁시대에	-10.4949
▁놀랍	-10.4951
▁아들이	-10.4955
이딴	-10.4957
기억이	-10.4959
▁유덕화	-10.4959
▁좋을듯	-10.4961
할줄	-10.4961
외로	-10.4966
느낌이	-10.497
▁세번	-10.497
▁전쟁의	-10.4976
자들의	-10.4976
등록	-10.4977
늙	-10.498
▁만난	-10.4983
▁따라가	-10.4986
멜	-10.4987
▁어울리지	-10.4997
▁정도면	-10.5002
점주	-10.5003
▁의상	-10.5008
감독은	-10.5012
그러나	-10.5012
▁눈물나	-10.5014
소녀	-10.5015
빠진	-10.5015
앉	-10.5016
맘	-10.5019
▁여자는	-10.5019
▁묻어	-10.5019
▁늦게	-10.5021
▁송강호	-10.5021
▁인터넷	-10.5021
껀	-10.5021
▁내생애	-10.5021
▁액션신	-10.5021
▁동시에	-10.5022
▁보시면	-10.5024
▁장난하냐	-10.5028
▁서울	-10.5032
▁자극적인	-10.5034
▁유럽	-10.5035
자들이	-10.5039
▁거품	-10.5039
▁파괴	-10.504
▁보는거	-10.504
래도	-10.504
▁살인마	-10.5041
▁포스터에	-10.5042
▁일본은	-10.5044
▁사실을	-10.5048
▁보았는데	-10.505
▁갓	-10.5051
▁적당한	-10.5054
▁먹는	-10.5056
▁녹아	-10.5058
▁평화	-10.506
▁절정	-10.5061
하자면	-10.5064
▁원조	-10.5067
특별	-10.5069
▁쫓	-10.5072
▁아깝네	-10.5073
▁사랑해요	-10.5078
▁의지	-10.5079
▁아니었다	-10.508
코믹	-10.5082
▁황당한	-10.5085
▁만들어서	-10.5086
▁매미	-10.5091
▁분들이	-10.5093
그럼	-10.5095
▁좋다고	-10.5104
봣다	-10.5104
안돼	-10.5107
▁자동차	-10.5114
▁가고	-10.5116
▁갖다	-10.5117
줄알았	-10.512
이예요	-10.5122
놨네	-10.5122
▁인간은	-10.5132
므	-10.5137
▁자아	-10.5142
▁웃을	-10.5142
▁답이	-10.5144
▁안될	-10.515
힘들	-10.5157
▁최소	-10.516
▁육	-10.5161
아이들	-10.5163
▁받고	-10.5164
광고	-10.5166
벅	-10.517
빗	-10.517
셉	-10.517
똘	-10.517
켄	-10.517
▁스티븐	-10.517
▁짐캐리	-10.517
걷	-10.517
릇	-10.517
▁가까운	-10.517
▁우려먹	-10.517
보느니	-10.5171
마누라	-10.5171
스텝	-10.5173
▁좋았을텐데	-10.5173
▁재미있는데	-10.5173
▁축구	-10.5173
▁역량	-10.5174
▁어쩌면	-10.5174
▁찍고	-10.5177
▁전반적으로	-10.5177
▁믿기지	-10.5179
낚	-10.5183
▁한국영화의	-10.5184
분동안	-10.5185
것같은데	-10.5188
▁목소리가	-10.5192
편에서	-10.5195
여운	-10.5204
보고있어요	-10.5207
▁스토리전개	-10.5207
▁답답함	-10.5209
▁시작부터	-10.5209
할수있는	-10.5211
찾아	-10.5213
▁탄탄하고	-10.5214
▁따뜻해	-10.5216
▁이끌어	-10.522
▁아깝네요	-10.5222
▁오락	-10.5222
나름	-10.5225
▁고어	-10.5228
볼수있	-10.5232
▁한국판	-10.5233
▁화나	-10.5234
어리	-10.5236
않음	-10.5236
▁왜곡	-10.5238
아니고	-10.5238
봐야지	-10.5239
섬	-10.5239
▁놓치	-10.5245
▁영화였음	-10.5246
▁재미없다고	-10.5246
새롭	-10.525
노답	-10.5251
었을까	-10.5257
재미있어요	-10.526
쩐다	-10.5263
있어요	-10.5264
▁일부	-10.5265
행복	-10.5266
▁등장인물들	-10.527
델	-10.5274
▁읽고	-10.5274
▁명연기	-10.5278
▁포스터만	-10.5282
▁만들었나	-10.5283
▁무섭고	-10.5289
▁웃었	-10.5291
스토리가	-10.5299
▁그립	-10.5301
같아	-10.5302
나오네	-10.5308
윈	-10.531
글자	-10.5313
쩌네	-10.5314
▁알았네	-10.5316
자식	-10.5318
썸	-10.5322
▁듭니다	-10.5322
몫	-10.5322
▁아무생각없이	-10.5322
▁깡패	-10.5322
▁양아치	-10.5322
▁첩보	-10.5322
▁정우성	-10.5322
▁민폐	-10.5323
▁죄송	-10.5324
▁이번에	-10.5325
▁은근히	-10.5327
▁소장	-10.533
잖아요	-10.5331
였지	-10.5333
였을	-10.5334
▁만들어낸	-10.5335
오래	-10.5339
▁기존	-10.5339
▁곰	-10.5344
▁이런류의	-10.5344
▁겨울	-10.5344
▁한개도	-10.5346
▁다시보고	-10.5348
▁사람이라면	-10.535
▁생각난다	-10.5359
되요	-10.5361
▁친구랑	-10.5362
▁아파	-10.5362
▁강간	-10.5362
▁액션과	-10.5363
▁한방	-10.5363
▁생에	-10.5366
▁전개와	-10.5369
재미없어	-10.537
▁초등학교	-10.5372
▁자극적	-10.5372
▁꿀	-10.5375
▁싱	-10.538
▁생명	-10.5386
▁사람들에게	-10.5386
▁그것이	-10.5387
▁시나리오가	-10.539
▁매력에	-10.5396
그렇게	-10.54
께요	-10.5401
▁본듯	-10.5405
th	-10.5415
미친	-10.5415
천원	-10.5418
▁지겹	-10.5418
▁불가능	-10.5425
▁느낌은	-10.5425
▁되네요	-10.5429
나쁜	-10.5432
브리	-10.544
▁봐야지	-10.5443
▁싶었다	-10.545
▁:)	-10.5451
▁녹	-10.5453
▁과장	-10.546
아직도	-10.5463
하진	-10.5464
me	-10.5468
▁작품이라	-10.5471
숨	-10.5473
꼈	-10.5475
처리	-10.5475
뭉	-10.5476
▁빕니다	-10.5476
▁누군지	-10.5476
▁역겨운	-10.5476
▁블랙코미디	-10.5477
▁헛웃음	-10.5477
해지고	-10.5477
▁왠만한	-10.5478
▁즐길	-10.548
▁이것보단	-10.548
▁이해불가	-10.5482
▁떨어져	-10.5486
▁말아야	-10.5488
아니면	-10.5489
▁담긴	-10.549
▁여태	-10.5491
▁팀	-10.5491
▁표현할	-10.5493
분들은	-10.5496
▁그것을	-10.5499
는거지	-10.55
▁100%	-10.55
스토	-10.5505
▁상관없	-10.5508
▁치유	-10.551
▁영원한	-10.5514
왔어요	-10.5515
▁최소한	-10.5519
꺼면	-10.5519
▁나오는데	-10.5521
▁재난	-10.5523
볼수	-10.5527
▁잔잔하면서	-10.5533
▁좋지	-10.5536
50	-10.554
▁반전에	-10.5542
▁사랑합니다	-10.5543
아쉬워요	-10.5547
스케	-10.5549
갖	-10.5554
▁영화예요	-10.5555
▁아동	-10.5559
평론가	-10.5559
▁비슷하	-10.556
▁따뜻	-10.5562
셔야	-10.5566
갈수록	-10.5566
▁스포츠	-10.5567
▁P	-10.5568
▁귀여움	-10.5568
▁찍는	-10.5569
▁책으로	-10.5571
달라	-10.5576
사실	-10.5576
선수	-10.5578
▁진지한	-10.558
무엇	-10.558
져요	-10.5581
자신	-10.5588
▁예술영화	-10.5595
답게	-10.56
▁각자	-10.5604
에비해	-10.5614
▁볼려고	-10.5616
안된다	-10.5622
▁시대의	-10.5631
쯔	-10.5632
뱀	-10.5632
▁웰메이드	-10.5632
퀄	-10.5632
▁어두운	-10.5632
▁호기심	-10.5632
▁혐오	-10.5632
▁못보겠다	-10.5635
▁고뇌	-10.5635
▁극단적	-10.5635
▁나무	-10.5637
▁상징	-10.5639
▁고독	-10.5639
특집	-10.564
▁강력	-10.564
▁요새	-10.5642
▁동네	-10.5643
▁여친	-10.5645
▁개똥	-10.5647
▁억지감동	-10.5648
▁볼만합니다	-10.565
▁마니	-10.565
▁첨부터	-10.5651
▁땅	-10.5657
▁옳	-10.566
▁애매	-10.566
▁적절한	-10.5662
스티	-10.5662
볼까	-10.5663
▁교훈도	-10.5664
▁안보는게	-10.5664
▁울면서	-10.5669
▁만들어주	-10.5669
하실	-10.5671
▁허무한	-10.5672
▁알았음	-10.5676
▁아진짜	-10.5678
▁잠시	-10.5681
▁천국	-10.5681
▁씹	-10.5683
▁괜찮아	-10.5684
시간동안	-10.5686
▁뜬금없는	-10.5691
▁반영	-10.5692
▁느낌이다	-10.5696
겠는데	-10.5698
▁만났	-10.5699
▁시점	-10.5701
순위	-10.5702
▁유치해서	-10.5707
앞	-10.571
▁형제	-10.572
▁잔잔하	-10.5723
하시고	-10.5723
귀엽	-10.5725
있을까	-10.5726
TV	-10.5728
코메디	-10.5729
것같아	-10.573
꿀	-10.5731
선택	-10.5732
▁나이가	-10.5733
sh	-10.5734
▁거기다	-10.5734
먹었	-10.5735
보고싶어요	-10.5745
▁아프다	-10.575
연기를	-10.5753
▁찾아서	-10.5754
전혀	-10.5755
너무너무	-10.5758
▁기적	-10.5758
주시	-10.5759
▁무섭지	-10.576
편집	-10.5764
해주고	-10.5764
▁제목을	-10.577
해놓고	-10.5771
아까워	-10.5775
▁다신	-10.578
▁전화	-10.578
▁덤	-10.5781
귀신	-10.5781
▁버려	-10.5785
ᄏᄏᄏᄏᄏᄏᄏᄏᄏᄏᄏᄏ	-10.5786
뷰	-10.5789
였네요	-10.579
▁류승범	-10.5791
랴	-10.5791
▁제시카	-10.5791
시대에	-10.5791
▁배급사	-10.5791
▁이도저도	-10.5791
▁풋풋한	-10.5792
▁빛나는	-10.5795
▁앉아	-10.5796
▁장애인	-10.5797
▁라스트	-10.5797
답니다	-10.5799
▁절망	-10.5799
ᄏᄏᄏᄏᄏᄏ	-10.58
▁전체적인	-10.5802
없구	-10.5803
▁심한	-10.5809
보내	-10.581
▁백인	-10.5814
▁마지막엔	-10.5816
▁괜찮았음	-10.5816
▁싶었던	-10.5819
▁남성	-10.5824
▁실감	-10.5825
▁널	-10.5826
므로	-10.5826
보게되	-10.583
▁초반부	-10.583
으시	-10.5831
점부터	-10.5837
▁부족함	-10.5838
▁추천하고	-10.585
보신분들	-10.5854
▁때리	-10.5858
▁별하나	-10.5862
▁신인	-10.5866
▁쩌는	-10.5866
▁벗어나	-10.588
▁아무도	-10.5883
맹	-10.589
즐	-10.5891
▁소재의	-10.5894
▁내리	-10.5896
소재와	-10.5898
▁진한	-10.5899
▁밤에	-10.5901
같아요	-10.5904
짱짱	-10.5905
▁않은데	-10.5906
▁벗어	-10.5908
거라고	-10.5908
▁정신병	-10.5909
▁배경으로	-10.591
▁잘만들었다	-10.5915
었지	-10.5921
▁돼지	-10.5936
▁장면들이	-10.5941
확실	-10.5941
닫	-10.595
▁가족의	-10.595
렀	-10.5952
윌	-10.5952
찜	-10.5952
▁놀랐다	-10.5952
닭	-10.5952
뢰	-10.5952
룰	-10.5952
쟈	-10.5952
뺏	-10.5952
▁빨갱이	-10.5952
▁드디어	-10.5952
▁엑소	-10.5952
▁러브라인	-10.5952
▁쓸쓸	-10.5953
▁흥미로웠	-10.5953
▁짜릿	-10.5954
▁ᄃᄃᄃ	-10.5955
복수	-10.5956
▁향수	-10.5958
▁담담	-10.5958
▁그림체	-10.5958
▁재미있었습니다	-10.5963
▁파리	-10.5965
형제	-10.5967
▁대표	-10.5968
지루하고	-10.5968
▁탓	-10.5969
에다가	-10.5969
▁아만다	-10.5971
했을때	-10.5972
▁놀란	-10.5974
▁있기	-10.5975
▁재미있었음	-10.5975
▁모르지만	-10.5976
▁있었으면	-10.5978
▁다행이다	-10.598
▁거지같은	-10.5981
당시엔	-10.5984
▁나을듯	-10.5989
다큐	-10.5991
▁보고싶어	-10.5992
▁편안	-10.5994
효과	-10.5995
▁의도가	-10.5997
▁소름돋	-10.5999
게만드는	-10.6001
보임	-10.6002
없나	-10.6004
▁감독과	-10.6011
▁빠져서	-10.6013
▁단편	-10.6015
▁괜찮게	-10.6015
▁그렇지만	-10.6017
▁ᄡ	-10.6021
▁드러	-10.6022
▁기대이하	-10.6025
▁여신	-10.6027
▁그리워	-10.604
▁보고나니	-10.604
->	-10.6042
터짐	-10.6043
▁인류	-10.6051
곳이	-10.6052
좋네요	-10.6053
▁소개	-10.6057
살인	-10.6066
▁빠지는	-10.607
▁괜찮고	-10.6076
보네요	-10.6079
역할	-10.6088
미스	-10.6089
▁인상적인	-10.609
작이라	-10.609
▁옆에	-10.6094
물론	-10.6099
간에	-10.61
▁자기가	-10.6105
측	-10.6113
칙	-10.6115
덩	-10.6115
랙	-10.6116
▁이병헌	-10.6116
쉐	-10.6116
욤	-10.6116
ᅢ	-10.6116
▁박중훈	-10.6116
▁브루스	-10.6116
▁화장실	-10.6116
셧	-10.6116
▁삭제	-10.6116
▁낭만	-10.6118
▁배꼽	-10.6118
맘에	-10.6121
꺼야	-10.6123
▁만들었을까	-10.6124
아아아	-10.6126
▁던져	-10.6128
▁드림	-10.6128
▁안본다	-10.6135
애들은	-10.6135
▁진지하게	-10.6137
▁말하려는	-10.6139
▁군인	-10.6144
▁보았던	-10.615
▁재밌었던	-10.6152
▁깔끔한	-10.6155
▁인디	-10.6157
▁유지	-10.6158
▁되는데	-10.616
▁졸았	-10.6162
해져	-10.6163
▁것만	-10.6164
있으면	-10.617
아닌가	-10.6175
▁연출력이	-10.6175
▁대사들	-10.6179
당신	-10.6188
▁와닿는	-10.6191
▁살았	-10.6192
▁드네요	-10.6193
놈들은	-10.6197
비하	-10.62
▁공감도	-10.6203
▁선사	-10.6204
뭐지	-10.6207
▁ᄒᄒᄒᄒ	-10.6208
편까지	-10.6213
것같네요	-10.6217
▁작가의	-10.6219
▁끝나서	-10.6229
..............	-10.6231
외엔	-10.6244
으신	-10.6246
하나하나가	-10.625
▁잘한다	-10.625
해줘서	-10.6257
▁ᄒᄃᄃ	-10.6261
재미있다	-10.6263
▁인생은	-10.6268
시키고	-10.6268
▁시간에	-10.6271
90	-10.6274
▁살다	-10.6274
▁빠졌	-10.6278
홈	-10.6282
▁EBS	-10.6282
▁언젠가	-10.6282
헉	-10.6282
▁베드신	-10.6282
쯧쯧	-10.6282
▁하이틴	-10.6282
▁박보영	-10.6283
▁무거운	-10.6283
차승원	-10.6283
돈주고	-10.6283
▁어설프다	-10.6284
▁비행기	-10.6285
▁생각해보게	-10.6286
▁분량	-10.6288
▁동영상	-10.6289
▁은근	-10.6292
▁도시	-10.6296
밖	-10.6297
합시다	-10.6297
▁개콘	-10.63
▁미안하다	-10.6301
▁가족애	-10.6305
▁극중	-10.6306
▁쪼	-10.6313
▁잃었	-10.6317
▁신선함	-10.632
포드	-10.6322
▁앞서	-10.6326
라인	-10.6327
▁맞나	-10.6327
▁들어간	-10.6327
▁조금은	-10.633
▁어이없다	-10.6332
▁내돈	-10.6334
▁요소가	-10.6336
▁사랑하고	-10.6337
▁감동적이네요	-10.6337
스릴	-10.634
▁생기	-10.6341
였다면	-10.6341
▁기대하지	-10.6341
▁사랑스럽다	-10.6345
번을	-10.6351
후반	-10.6358
더군	-10.6361
▁보라고	-10.6363
장난치	-10.6366
▁날아	-10.6366
▁뜬금없이	-10.6374
▁넘어가	-10.6377
▁뭐임	-10.6377
▁망할	-10.6393
주제	-10.6399
▁않았던	-10.6406
▁하나님	-10.6407
▁탄탄	-10.6408
▁14	-10.6411
년대에	-10.6418
결국	-10.6426
▁드라마입니다	-10.6427
▁캐릭터들이	-10.6429
쟁	-10.643
▁뭐하는	-10.6432
보고나서	-10.6437
광구	-10.6438
▁것들이	-10.6444
줄알았다	-10.6446
갠	-10.6449
줘야지	-10.6451
。	-10.6452
셜	-10.6452
▁흡입력	-10.6452
렐	-10.6452
뤄	-10.6452
쉴	-10.6452
툭	-10.6452
▁신하균	-10.6452
듦	-10.6452
▁라이언	-10.6452
▁거부감	-10.6452
▁무간도	-10.6453
▁오글오글	-10.6453
▁둘째치고	-10.6453
▁예측	-10.6454
▁도둑	-10.6455
▁잃은	-10.6455
▁2012	-10.6456
▁부탁	-10.6456
▁고딩	-10.6456
▁말그대로	-10.6459
▁하하	-10.646
▁깎	-10.646
▁불쌍하	-10.6461
여배우	-10.6464
겠어	-10.6466
▁흘러가는	-10.6467
으러	-10.6471
▁영원	-10.6472
▁빼곤	-10.648
▁나올때	-10.6481
▁답답하다	-10.6483
실력	-10.6484
점만점에	-10.6494
▁무대	-10.6496
중국	-10.6496
▁언제까지	-10.6497
본적	-10.6497
▁순수하고	-10.6501
▁첨이다	-10.6501
▁이거보다	-10.6504
최고다	-10.6504
▁숨은	-10.6512
▁실망스럽	-10.6518
▁대학	-10.6525
▁나오네	-10.653
▁나와야	-10.6533
▁시작해서	-10.6534
▁가히	-10.6535
하겠습니다	-10.6538
▁여인	-10.654
▁보겠다	-10.6541
▁뛰어넘는	-10.6543
▁재미없었	-10.655
▁몰아	-10.6551
▁짜증나게	-10.6554
극히	-10.6556
▁소장하고	-10.6557
▁화끈	-10.656
▁미국식	-10.6561
▁절로	-10.6566
잊	-10.6575
▁조연들	-10.6578
▁이상하다	-10.6581
▁씁쓸하	-10.6582
14	-10.6584
▁및	-10.6587
▁만들려	-10.6587
싫다	-10.6588
경찰	-10.6594
▁전문	-10.6595
는것을	-10.6596
ed	-10.6606
▁다시보기	-10.6608
맞음	-10.661
도좋고	-10.6615
▁당연	-10.6616
ᅩ	-10.6623
풋	-10.6624
븐	-10.6624
▁아름다워	-10.6624
▁임창정	-10.6624
램	-10.6624
▁비호감	-10.6624
▁칭찬	-10.6624
▁부자연	-10.6624
▁워낙	-10.6624
▁아쉬울	-10.6625
잊지못할	-10.6625
▁감명깊게	-10.6625
▁향연	-10.6625
▁역겹다	-10.6626
▁따름	-10.663
어야지	-10.6631
▁엄청나게	-10.6631
▁개그맨	-10.6631
▁낫겠다	-10.6632
립니다	-10.6632
▁부활	-10.6634
▁마시길	-10.6635
▁에효	-10.6635
▁혼란	-10.6635
▁좋겠습니다	-10.6636
▁같았다	-10.6641
▁꼭보세요	-10.6642
멋잇	-10.665
ᄏᄏᄏᄏᄏᄏᄏ	-10.6652
▁재미있었는데	-10.6653
좋아하	-10.6656
뻔했다	-10.6658
se	-10.6668
▁멋지게	-10.6671
▁아니잖아	-10.6675
못함	-10.6677
▁러브	-10.6678
▁캐릭터를	-10.6688
▁한번더	-10.6696
하고싶다	-10.6697
▁지났	-10.6697
▁극장에	-10.6697
▁있겠	-10.6703
▁가시	-10.6706
▁맡은	-10.671
맞아	-10.671
거에요	-10.6711
해줄	-10.6717
▁연상	-10.6724
하하하하	-10.6724
▁H	-10.6727
싫	-10.673
▁했더니	-10.6731
▁코믹영화	-10.6733
인걸	-10.6734
ch	-10.6735
▁여배우들	-10.6737
▁새벽	-10.6739
▁웃는	-10.6744
~~~~~	-10.6745
▁쏘	-10.6747
빠져	-10.6751
▁작위적	-10.6758
▁볼것	-10.6758
▁의문이	-10.6759
꼽	-10.6767
프로그램	-10.6768
예술	-10.6769
벤	-10.677
▁어디로	-10.6773
▁말고는	-10.6774
▁역사에	-10.6776
잖	-10.6779
▁입장	-10.6783
러운	-10.6788
▁최악의영화	-10.6796
▁연기력에	-10.6798
▁최고네요	-10.6799
▁어우	-10.68
넷	-10.68
맺	-10.68
▁디카프리오	-10.68
▁소름끼치는	-10.68
▁스타워즈	-10.68
밧	-10.68
퉤	-10.68
팩	-10.68
▁재밌게봤어요	-10.68
▁왕조현	-10.68
▁도데체	-10.68
▁괜찬	-10.68
▁스타뎀	-10.68
▁나타나	-10.6803
▁격투	-10.6803
▁그려낸	-10.6803
▁로빈	-10.6806
▁철저	-10.6808
▁시도는	-10.681
▁중학생	-10.6812
▁J	-10.6818
▁케미	-10.6819
까봐	-10.6821
▁귀여워요	-10.6822
▁소통	-10.6828
▁다운받아서	-10.6832
▁어이없음	-10.6838
▁부산	-10.6839
▁독특하고	-10.6841
▁안나온다	-10.6845
▁당신이	-10.685
ra	-10.6851
▁분장	-10.6853
un	-10.6853
▁이딴영화	-10.6856
▁말투	-10.6857
▁영상도	-10.6859
시킬	-10.6862
▁있으나	-10.6863
▁넘넘	-10.6866
겼다	-10.6867
▁형편없는	-10.6872
▁탐	-10.6872
▁있긴	-10.6877
▁웃기는	-10.6885
▁원하는	-10.6886
▁슬픈영화	-10.6892
거같아	-10.6895
비추	-10.6896
▁상어	-10.6896
▁뭐여	-10.6896
▁한시간	-10.6897
쁜	-10.6898
▁구분	-10.6908
▁시기	-10.6908
▁뭐라고	-10.6909
▁별로였다	-10.6916
▁빈약	-10.692
▁들게	-10.6925
텐	-10.6925
▁귀여	-10.6927
▁살리지	-10.6928
▁충분한	-10.6932
이랄까	-10.6933
외에는	-10.6934
▁있었고	-10.6936
▁잠을	-10.6942
▁두시간	-10.6944
▁막판	-10.6945
▁살아야	-10.6949
▁정체	-10.6951
빼곤	-10.6953
시청률	-10.6953
그나마	-10.6955
판타지	-10.6955
CG	-10.6955
우리나라	-10.6956
나왔으면	-10.6962
허무	-10.6965
이후로	-10.6966
있네요	-10.6971
▁싶어서	-10.6977
버렸네	-10.6978
▁뒤죽박죽	-10.6978
▁비쥬얼	-10.6978
▁살렸다	-10.6978
▁시종일관	-10.6978
▁아기자기	-10.6978
▁알파치노	-10.6978
쌓	-10.6978
얄	-10.6978
콕	-10.6978
혔	-10.6978
▁여러모로	-10.6978
▁미스터리	-10.6978
▁한효주	-10.6978
▁일주일	-10.6979
▁미스캐스팅	-10.6979
▁킬러	-10.6979
com	-10.6979
▁스파이	-10.698
▁더러워	-10.698
▁추격	-10.698
▁묘한	-10.6982
았으면	-10.6983
▁돈아까워	-10.6983
▁감동적이에요	-10.6985
여주인공	-10.6988
미화	-10.699
부리	-10.6992
▁힘을	-10.6992
▁속았다	-10.6994
▁모욕	-10.6996
지루하다	-10.7
▁가짜	-10.7002
▁이별	-10.7002
▁최후	-10.7002
겨울	-10.7004
ᄃᄃᄃ	-10.7005
주기도	-10.7007
▁작화	-10.7008
지루해	-10.701
▁않으	-10.701
▁감명	-10.7011
▁되야	-10.7012
▁입장에서	-10.7014
▁아이들에게	-10.7016
▁챙겨보	-10.7021
▁말인가	-10.7021
▁완벽하다	-10.7023
▁공유	-10.7029
▁최고라고	-10.703
▁볼만했	-10.7035
걸린	-10.7043
느냐	-10.7043
▁읽는	-10.7049
▁글을	-10.7053
▁타란티노	-10.7055
▁방해	-10.7055
▁말밖에	-10.7056
▁삶과	-10.7059
▁개봉당시	-10.706
▁잼있네요	-10.7063
기술	-10.7065
▁건질	-10.7066
▁다시금	-10.7066
▁만화영화	-10.707
▁불과	-10.7075
▁싫어하는	-10.708
▁전편보다	-10.7081
▁지키	-10.7084
성우	-10.7087
점주기도	-10.7094
▁범죄자	-10.7103
~~~~~~~~	-10.7105
▁알게되	-10.7109
▁소름돋는	-10.7116
▁프랑스영화	-10.7116
▁재미없네요	-10.7118
아무	-10.712
▁노인	-10.7123
▁흉내	-10.7124
탓	-10.7141
am	-10.7147
어떤	-10.715
▁다른영화	-10.7153
▁또보고싶	-10.7156
해야하나	-10.7159
깁	-10.716
됫	-10.716
렛	-10.716
▁아마추어	-10.716
▁펼쳐	-10.716
▁김수현	-10.716
▁닥치고	-10.716
▁바탕으로	-10.7161
▁직업	-10.7161
▁보지마셈	-10.7161
▁혁명	-10.7161
70	-10.7161
▁엽기	-10.7162
▁섬세하	-10.7163
▁난해한	-10.7164
▁픽사	-10.7164
▁억지스럽고	-10.7165
▁오래전에	-10.7165
엇음	-10.7165
각본	-10.7166
스코	-10.7168
▁말씀	-10.7171
▁충분하다	-10.7173
▁어쩌다	-10.7173
▁장난하나	-10.7186
였구나	-10.7193
▁역사상	-10.7194
▁사회적	-10.7196
▁믿음	-10.7199
▁미녀	-10.7201
▁산만하고	-10.7206
▁만들다	-10.7206
▁옛날영화	-10.7207
▁사랑스럽고	-10.7207
수밖에	-10.7212
▁준비	-10.7217
▁위트	-10.7218
본거	-10.7218
~~~~~~	-10.7218
▁당장	-10.7219
스틴	-10.722
▁모르겠네	-10.7223
▁멋져	-10.7223
▁우선	-10.7228
▁단점	-10.7229
▁movie	-10.7231
▁충격적인	-10.7234
▁만들어라	-10.7237
되길	-10.7238
▁사람에게	-10.7242
지않게	-10.7245
▁받았다	-10.7246
었구나	-10.7247
▁그런거	-10.7248
▁당황	-10.7251
▁오글거리는	-10.7252
▁철학적	-10.7253
▁듣기	-10.7258
▁비교해	-10.727
▁스릴러물	-10.7271
▁질질끌	-10.7272
▁대부	-10.7282
▁욕먹	-10.7294
▁보아도	-10.7298
!!!!!!!!	-10.7301
▁살아있는	-10.7303
행위	-10.7308
▁세상에서	-10.731
하더니	-10.7315
▁팬들	-10.7315
부르	-10.7329
얼마나	-10.7335
떼	-10.7336
▁선동	-10.7336
댓글	-10.7336
둑	-10.7342
병맛	-10.7344
샘	-10.7344
줍니다	-10.7345
덧	-10.7345
▁강동원	-10.7345
▁섬세한	-10.7345
▁섬뜩	-10.7346
형사	-10.7346
▁극혐	-10.7347
▁그럴싸	-10.7347
▁승부	-10.7348
▁에라이	-10.7348
▁풀어낸	-10.7349
▁좋으나	-10.7353
▁미소가	-10.7353
시켰	-10.7353
ost	-10.7356
▁로망	-10.7361
▁못하겠다	-10.7363
▁울었어요	-10.7364
▁보는것	-10.7364
속으로	-10.7367
▁늙어	-10.7368
드네요	-10.7373
▁조낸	-10.7375
▁흥분	-10.7376
살때	-10.7377
us	-10.7386
잼씀	-10.7386
▁뻔한스토리	-10.7386
▁학생들	-10.7388
자꾸	-10.7392
▁보여줄	-10.74
▁나열	-10.7404
▁될수	-10.7405
▁아까워서	-10.7405
버스	-10.7407
▁조금만	-10.741
▁고마	-10.7411
▁올라가	-10.7416
그저	-10.7428
믿고	-10.7429
말이필요없	-10.7436
▁좋아하지만	-10.7437
투성이	-10.7442
재밋엇	-10.7443
▁느껴지지	-10.7457
▁낮은지	-10.7461
▁심하다	-10.7462
영활	-10.7463
돌려	-10.7463
아까운영화	-10.7465
그대로	-10.7476
있었는데	-10.748
▁나머지는	-10.7483
▁알리	-10.7489
재밋다	-10.749
▁뻔하다	-10.7494
▁똑같이	-10.7498
▁이것보다	-10.7501
▁마시	-10.7506
제일	-10.7509
야말로	-10.7518
▁후하게	-10.7519
닮	-10.752
▁실사	-10.7524
▁미쳐	-10.7527
재밌고	-10.7527
싹	-10.7528
괜	-10.7528
리스트	-10.7531
▁잘생겼	-10.7533
로맨스	-10.7533
▁캐릭	-10.7534
치면	-10.7534
▁주려	-10.7534
솜	-10.7534
넬	-10.7534
쏴	-10.7534
퀸	-10.7534
펜	-10.7534
▁엔딩크레딧	-10.7534
▁유치찬란	-10.7534
▁마찬가지	-10.7534
오랫동안	-10.7534
▁클래식	-10.7534
▁납득	-10.7534
▁떡밥	-10.7534
▁원숭이	-10.7534
▁ᄌᄂ	-10.7534
어울림	-10.7534
생겨서	-10.7535
▁두고두고	-10.7535
▁레옹	-10.7536
▁민족	-10.7537
▁쉬운	-10.7541
▁방향	-10.7541
▁중년	-10.7542
▁시험	-10.7544
저런	-10.7546
▁세계관	-10.7548
▁모자라	-10.755
보지마라	-10.7555
▁한심하다	-10.7556
▁고문	-10.7557
il	-10.7562
할수없	-10.7564
▁비록	-10.7565
▁매번	-10.7565
뻔함	-10.7568
▁안나오는	-10.7569
ic	-10.7569
▁당신의	-10.7574
▁세월이	-10.758
▁망쳐놓	-10.758
▁아이유	-10.7582
것인지	-10.7582
▁우린	-10.7586
▁남아있	-10.7588
긴했지만	-10.7588
그런데	-10.7588
무시	-10.7591
▁화질	-10.7594
진행	-10.7598
^^;	-10.7598
▁진부하	-10.7605
▁무섭게	-10.761
▁만들어졌	-10.7614
▁소유	-10.7616
▁행복하게	-10.7618
▁귀여웠	-10.7619
누님	-10.762
목숨	-10.7621
거든	-10.7626
점이나	-10.7627
소년	-10.7629
현실적	-10.7631
▁훈훈하	-10.7632
하러	-10.7633
▁현실은	-10.7638
▁관심이	-10.7638
나올때	-10.7641
▁티비로	-10.7643
▁한가지	-10.7644
▁나음	-10.7645
났음	-10.7651
뒤에	-10.7656
▁무서움	-10.7659
▁천사	-10.7661
▁넘어서	-10.7662
▁가야	-10.7665
팬이	-10.7667
거보고	-10.7673
좀비	-10.7681
내리	-10.7691
치기	-10.7693
▁잔인함	-10.7713
▁잼없다	-10.7713
만족	-10.7713
▁훌륭하	-10.7717
내려	-10.7718
▁남는게	-10.7719
썼	-10.7719
간만에	-10.772
웠음	-10.772
▁장진	-10.7721
륜	-10.7722
▁예수	-10.7722
이었어요	-10.7723
▁웃었다	-10.7723
낯	-10.7726
멈	-10.7726
덴	-10.7726
뜸	-10.7726
숀	-10.7726
▁즐거움	-10.7726
츄	-10.7726
팽	-10.7726
왈	-10.7726
핫	-10.7726
▁감성팔이	-10.7726
드려요	-10.7727
▁온갖	-10.7728
▁자연스럽게	-10.7728
즐겁	-10.773
▁잔잔함	-10.773
덕분에	-10.7731
▁4.44	-10.7731
▁돌아보게	-10.7731
낭비	-10.7731
페이스	-10.7732
▁재앙	-10.7735
결혼	-10.7736
명성에	-10.7737
봣어요	-10.7738
방에서	-10.7743
ᄀᄀ	-10.7743
▁개꿀잼	-10.7745
예뻐	-10.7747
분짜리	-10.7747
▁괜찮았던	-10.7748
▁지옥	-10.7749
▁의도는	-10.775
▁못했	-10.7753
죽이고	-10.7757
▁재방	-10.776
될까	-10.7761
▁싶습니다	-10.7763
▁이만한	-10.7768
▁믿어	-10.7769
하였다	-10.777
▁괜찮네요	-10.7772
▁영화라지만	-10.7776
▁언어	-10.7777
충격	-10.7778
달라고	-10.7778
▁보게되는	-10.7779
▁인생영화	-10.7779
▁조잡한	-10.7785
하길래	-10.7786
▁눈으로	-10.7794
▁원작과	-10.78
▁커서	-10.7801
국민	-10.7802
줘요	-10.7805
▁이거보단	-10.7806
▁스파이더맨	-10.7817
로서는	-10.7819
▁일반인	-10.782
▁살아남	-10.783
▁맞다	-10.7833
스턴	-10.785
삼류	-10.7855
ne	-10.7861
▁끝날	-10.7861
ce	-10.7862
질질	-10.7865
▁가르	-10.7867
됬다	-10.7867
지마세요	-10.7868
좋겠	-10.7875
▁두명	-10.789
▁실망이다	-10.7891
싶은데	-10.7894
구역	-10.7896
▁배우분들	-10.7897
▁별거	-10.79
검사	-10.7908
▁들어서	-10.7909
답다	-10.7909
보던	-10.7915
감명깊	-10.7921
렴	-10.7922
잣	-10.7922
▁점수준것들	-10.7922
띠	-10.7922
짙	-10.7922
☆	-10.7922
▁머릿속	-10.7922
▁김혜수	-10.7922
▁안타까움	-10.7922
▁피아노	-10.7922
▁애초에	-10.7923
▁상큼	-10.7924
▁치밀하	-10.7924
▁케빈	-10.7925
▁로맨틱코미디	-10.7925
▁파격적	-10.7926
주었다	-10.7926
▁방황	-10.7926
▁아니라면	-10.7928
▁자랑	-10.7934
쩝	-10.7934
멀	-10.7934
애니메이션	-10.7935
▁감동적입니다	-10.7936
▁태국	-10.7936
관리	-10.7936
▁느껴질	-10.7938
▁필요한가	-10.7943
▁얻어	-10.7944
왠	-10.7945
▁짱이다	-10.7946
▁많네	-10.7947
피디	-10.7947
▁후반부에	-10.7954
▁제작비가	-10.7958
지않는다	-10.7962
▁한동안	-10.7964
▁기발한	-10.7964
ha	-10.7964
더라고요	-10.7964
▁오그라들	-10.7974
어가는	-10.7974
▁웃겼다	-10.7977
▁느껴졌다	-10.7977
▁채워	-10.7978
레드	-10.7979
수작	-10.7992
ter	-10.7997
▁없던	-10.8004
▁외국인	-10.8004
마저도	-10.8007
제국	-10.8008
▁있었음	-10.8008
▁느끼고	-10.8015
▁나왔던	-10.8016
반갑	-10.802
▁뛰어넘	-10.8021
호러	-10.8027
▁못봐주겠	-10.8028
빠짐	-10.8028
할수없는	-10.8029
▁신화	-10.8034
▁짜증났	-10.8035
보려	-10.8043
▁발음	-10.8044
▁짱구	-10.8045
누구	-10.8054
▁낚인	-10.8061
▁알려주는	-10.807
하하	-10.8071
싶네요	-10.8072
동화	-10.8073
좋은데	-10.8075
끝나고	-10.8075
▁눈치	-10.8087
▁나오기	-10.8092
▁열라	-10.81
▁알아야	-10.8102
분정도	-10.8103
▁강렬	-10.8106
▁킬링	-10.8122
없었	-10.8122
쭈	-10.8122
팝	-10.8122
▁뒤늦게	-10.8122
▁어정쩡	-10.8122
꽁	-10.8122
랏	-10.8122
뻑	-10.8122
▁데이빗	-10.8122
▁오그라드는	-10.8123
▁바란다	-10.8123
▁수면제	-10.8123
흑흑	-10.8124
▁전성기	-10.8125
잇엇	-10.8126
▁자연스러운	-10.8127
올린	-10.8128
vs	-10.8129
놈은	-10.8131
▁프레	-10.8135
예전	-10.8136
▁무엇이	-10.8137
▁또라이	-10.814
▁고증	-10.8142
▁처음본다	-10.8144
올려	-10.8145
하지않고	-10.8146
예쁘	-10.8147
▁재밌었습니다	-10.815
▁담고	-10.8153
▁봐주	-10.8157
▁웃음을	-10.8161
학년때	-10.8163
▁정리	-10.8164
▁보고싶은데	-10.8165
학원	-10.8177
▁답답해	-10.818
▁빠져들게	-10.8182
id	-10.8183
very	-10.8185
릴때	-10.8187
▁모든것이	-10.8187
재밋음	-10.8194
▁역작	-10.82
▁의미있는	-10.8201
▁화끈한	-10.8203
▁밋밋한	-10.8208
할려고	-10.8208
▁막상	-10.821
▁도와	-10.8214
안되고	-10.8219
▁부족하고	-10.8238
▁무협영화	-10.8241
▁안되네	-10.8244
▁웃겼	-10.8245
것들이	-10.8246
▁본격	-10.8252
보려고	-10.8256
깐	-10.8257
시키지	-10.8263
했어도	-10.8268
▁잠들	-10.8275
▁전율	-10.8284
남주	-10.8301
어른	-10.8307
▁남기는	-10.8307
▁불쌍해	-10.8311
▁대박이다	-10.8316
▁독립	-10.832
▁니들이	-10.8322
▁허허	-10.8323
하든	-10.8324
혐	-10.8325
▁아무나	-10.8325
뎀	-10.8326
아카데미	-10.8326
▁bad	-10.8326
▁고등학생	-10.8326
▁런닝타임	-10.8326
▁크레딧	-10.8326
▁흘렸	-10.8326
좆	-10.8326
쩍	-10.8326
푼	-10.8326
▁미스테리	-10.8326
▁세련된	-10.8326
▁엄정화	-10.8326
▁짬뽕	-10.8326
뚫	-10.8326
▁완젼	-10.8326
▁한석규	-10.8326
▁스페인	-10.8327
▁no	-10.8327
▁늙은	-10.8329
▁닮았	-10.8331
▁찬양	-10.8333
▁억지스런	-10.8334
크리	-10.8335
▁사이코	-10.8336
▁먹칠	-10.8337
보러	-10.8337
▁빠질	-10.8345
▁진행되는	-10.8345
▁복선	-10.8348
▁환장	-10.8349
빠르	-10.8351
두번	-10.8352
첫	-10.8356
옛날	-10.8357
졌음	-10.8358
▁채우	-10.8358
초딩	-10.836
▁마블	-10.8362
철학	-10.8364
▁한사람	-10.8366
▁당연한	-10.8367
폭력	-10.8369
▁멋있고	-10.837
▁봐줄만	-10.8371
▁최고에요	-10.8373
▁주온	-10.8375
에휴	-10.8376
▁모방	-10.8376
▁있겠지만	-10.8378
▁부인	-10.8379
▁않습니다	-10.8389
▁느낀다	-10.839
▁오해	-10.8393
▁웃겨서	-10.8396
▁얘기를	-10.8397
▁제대로된	-10.84
들끼리	-10.8407
▁편하게	-10.8409
▁다가오	-10.841
▁정체성	-10.841
할정도로	-10.8415
▁낮네요	-10.8417
▁니네	-10.8429
▁진부하다	-10.8435
▁안보면	-10.8437
▁현실적이고	-10.8439
▁본능	-10.8446
▁상업영화	-10.8447
▁무식	-10.845
▁의해	-10.8453
프라	-10.8455
▁못만들	-10.8458
▁감독에게	-10.8461
▁과정이	-10.8462
작가님	-10.8467
▁꿈과	-10.847
구먼	-10.8471
▁지경	-10.8472
떨어지	-10.8473
▁커버	-10.8473
▁아까웠	-10.8476
▁17	-10.8484
▁제작자	-10.8492
▁안가는	-10.8501
차원	-10.8501
실화	-10.8503
ve	-10.8504
▁역사적	-10.8506
하기에는	-10.8518
어설프	-10.8529
랍	-10.8531
▁시청자들	-10.8532
▁일깨워	-10.8533
냄	-10.8533
썰	-10.8535
****	-10.8535
ᄐ	-10.8535
▁호불호가	-10.8535
뜯	-10.8535
쇄	-10.8535
ᄊ	-10.8535
▁그냥저냥	-10.8535
믄	-10.8535
▁팝콘	-10.8535
▁설경구	-10.8535
시끄럽	-10.8535
▁나루토	-10.8535
▁원피스	-10.8535
▁드니로	-10.8535
▁후속편	-10.8535
▁보낸다	-10.8535
▁귀찮	-10.8537
▁호흡	-10.8537
어지럽	-10.8537
▁브레	-10.8537
▁말이필요없다	-10.8537
▁가슴아프	-10.8538
▁생존	-10.8542
▁시골	-10.8548
높아	-10.8548
▁힘들어	-10.8549
▁간직	-10.8551
▁개인적인	-10.8552
▁초반엔	-10.8552
▁멋져요	-10.8554
▁가족과	-10.8557
▁거짓	-10.8558
▁되었습니다	-10.856
▁두개	-10.856
남긴다	-10.8565
▁바라는	-10.8565
됬는데	-10.8566
줄알고	-10.8567
점주고	-10.8567
▁감정선	-10.8568
옷	-10.8568
▁심장이	-10.8568
것같음	-10.8569
▁극본	-10.8571
▁스포	-10.8571
▁성형	-10.8571
갑자기	-10.8574
촬영	-10.8574
잭슨	-10.8574
▁이런식으로	-10.8576
암튼	-10.8576
▁미학	-10.8577
▁멜로영화	-10.8578
▁시체	-10.8578
보길	-10.8579
보지마세요	-10.8582
▁저리	-10.8584
▁기대된다	-10.8585
▁좋더라	-10.859
역을	-10.8593
▁않아요	-10.8595
▁쓰러	-10.8596
▁높지	-10.8597
▁갖게	-10.8598
회부터	-10.8604
▁물어	-10.8606
끝내	-10.8614
▁재수없	-10.8616
아닌데	-10.8618
좋아하는데	-10.8622
▁만들었으면	-10.8623
▁16	-10.8623
▁기대했던	-10.8625
▁상처를	-10.8626
▁이어지는	-10.8628
la	-10.8628
있었던	-10.863
▁점에서	-10.8631
해가는	-10.8633
볼때	-10.8636
▁내취향	-10.864
▁첨으로	-10.8656
▁해외	-10.8669
레기	-10.8677
아직	-10.8677
▁남아있는	-10.868
▁정부	-10.8689
▁일본에서	-10.8691
▁즐겨	-10.87
바른	-10.87
▁나오네요	-10.8706
▁웃기기	-10.8719
하려면	-10.8719
▁출연자	-10.8726
었을텐데	-10.8726
룬	-10.8728
졌으면	-10.8733
한국영화	-10.8742
댓	-10.8746
콤	-10.8746
봇	-10.8746
랍니다	-10.8746
Y	-10.8748
▁박찬욱	-10.8748
▁영웅본색	-10.8748
▁테이큰	-10.8748
턱	-10.8748
▁2.22	-10.8748
▁아이언맨	-10.8748
▁에드워드	-10.8748
숲	-10.8748
▁정주행	-10.8748
▁김희선	-10.8748
▁어딘가	-10.8748
▁흥미롭게	-10.8748
▁슈퍼맨	-10.8752
▁공룡	-10.8753
▁새삼	-10.8753
ᅲᅲᅲᅲᅲ	-10.8755
▁이하도	-10.8756
▁취향이	-10.8756
뭔지	-10.8759
▁러닝타임이	-10.8759
▁경악	-10.8762
▁히어로물	-10.8765
앞에	-10.8767
▁감동적이었다	-10.8768
▁거기서	-10.8769
▁심각하게	-10.8769
▁동화같은	-10.877
▁광기	-10.8771
그녀	-10.8774
▁ᄏᄏᄏᄏᄏᄏᄏᄏᄏᄏᄏᄏᄏᄏ	-10.8777
▁회상	-10.8783
하겠지만	-10.8783
▁귀여워서	-10.8783
▁강추합니다	-10.8785
▁액션물	-10.8786
▁만들었냐	-10.8787
▁흉내내	-10.879
▁않으면	-10.8792
무서운	-10.8794
▁어린아이	-10.8795
멋대로	-10.8795
오랜만에	-10.8796
▁말았다	-10.8798
있다면	-10.8799
▁긴장감과	-10.8801
▁편인데	-10.8802
전체	-10.8806
▁전율이	-10.8807
▁거기	-10.8808
▁피식	-10.8809
▁봐야한다	-10.8809
▁몰입하게	-10.8811
▁구경	-10.8819
:)	-10.8822
▁포함	-10.8823
웃긴	-10.8825
▁우리에게	-10.8826
분들께	-10.8827
▁명배우	-10.8829
▁싶음	-10.8831
공부	-10.8831
▁허구	-10.8832
▁있어보이	-10.8833
▁걸작이다	-10.8835
▁연주	-10.8835
▁안봐서	-10.8842
▁최고최고	-10.8843
▁만들어야	-10.8848
입장	-10.8849
▁세월	-10.885
▁머냐	-10.885
잘못	-10.8854
스러웠다	-10.8855
져야	-10.8859
▁대역	-10.8861
▁머야	-10.8872
▁다름	-10.8877
▁다시봤는데	-10.8879
ri	-10.8881
▁믿는	-10.8895
ie	-10.89
▁느껴졌	-10.8906
순수	-10.8913
▁장점	-10.8913
말도안되	-10.8916
보기엔	-10.892
▁못했던	-10.8921
나봐요	-10.8927
같애	-10.893
빡치	-10.8934
▁적절	-10.8937
▁망쳐	-10.8938
▁이딴게	-10.8939
▁싶다면	-10.8945
▁오랜	-10.8945
▁반감	-10.8953
밍	-10.8965
▁군더더기	-10.8965
▁송승헌	-10.8965
즉	-10.8965
늬	-10.8965
릅	-10.8965
▁손예진	-10.8965
▁어차피	-10.8965
▁권상우	-10.8965
▁오페라	-10.8965
▁외로움	-10.8965
▁흠잡을	-10.8965
▁왕가위	-10.8965
점준것중	-10.8965
▁심리묘사	-10.8966
▁엠마	-10.8966
▁어설프게	-10.8966
▁색채	-10.8968
낫다	-10.8969
땜시	-10.8969
▁낮추	-10.8971
▁웃으며	-10.8972
▁재탕	-10.8974
드리고	-10.8977
▁반응	-10.8977
▁가능성	-10.8981
▁상식	-10.8982
▁소품	-10.8986
▁무기	-10.8987
▁아깝습니다	-10.8987
강력추천	-10.8988
▁힘들었다	-10.8988
▁웃다가	-10.8989
▁괜찮을	-10.8998
▁기발	-10.8998
▁우승	-10.8999
▁결국엔	-10.9
▁알바생	-10.9005
▁레오	-10.9008
op	-10.9011
▁한글	-10.9012
▁이딴거	-10.9016
▁공연	-10.9019
때문	-10.902
더럽게	-10.9026
▁인연	-10.9026
킬링타임	-10.9029
▁여유	-10.903
▁경우	-10.9031
죽여	-10.9032
볼때마다	-10.9032
실패	-10.9036
▁자세	-10.904
▁지금보면	-10.9041
▁검색해	-10.9042
많은것을	-10.9045
▁벌어	-10.9047
▁십점	-10.9049
▁자위	-10.9051
평생	-10.9051
년간	-10.9053
같네요	-10.9054
▁보이고	-10.9056
▁전라도	-10.9061
돌리	-10.9066
▁매주	-10.9067
▁나올까	-10.907
▁면이	-10.9071
장님	-10.9073
▁동감	-10.9078
학대	-10.908
▁최고인듯	-10.9084
지루한	-10.9097
▁인식	-10.9098
▁허접하고	-10.9105
폴	-10.9106
줄거리	-10.9108
되네	-10.911
나이트	-10.9112
▁자체로	-10.912
듣고	-10.9124
좋겠다	-10.9126
위주	-10.9131
버그	-10.9138
▁어울리	-10.9139
보니깐	-10.9141
▁싫은	-10.9141
보여서	-10.9152
▁필요하다	-10.9152
▁안봄	-10.9154
별점	-10.9157
▁본듯한	-10.9157
▁명작임	-10.9163
남매	-10.9164
않았다	-10.9165
▁연기잘하	-10.9171
밋	-10.9181
웠던	-10.9186
▁가볍지	-10.9187
▁스필버그	-10.9187
넓	-10.9187
▁깨달음	-10.9187
▁멘탈	-10.9187
▁나머진	-10.9187
▁픽션	-10.9187
▁아바타	-10.9187
▁컬트	-10.9188
▁예뻐서	-10.9188
▁가까이	-10.9188
▁택시	-10.9189
▁절묘	-10.9189
><	-10.919
▁2015	-10.9191
▁과장된	-10.9195
할게요	-10.9195
▁찍지	-10.9195
▁치료	-10.9197
200	-10.9198
▁음향	-10.9203
▁대사와	-10.9204
▁알려주	-10.921
▁번역	-10.921
▁기억난다	-10.9212
▁모순	-10.9212
▁경계	-10.9213
▁못따라	-10.9214
▁향한	-10.9214
▁일찍	-10.9216
▁내시간	-10.9217
김구라	-10.9218
▁애정	-10.9227
▁불쌍해서	-10.9235
▁남긴	-10.9235
▁로마	-10.9236
▁전설이	-10.9238
한텐	-10.924
▁-_-;;	-10.9241
겨운	-10.9242
만든영화	-10.9244
▁정석	-10.9248
민호	-10.9248
마무리	-10.9253
그래픽	-10.9256
테니	-10.9257
▁오직	-10.9258
모델	-10.9258
무서움	-10.9266
tv	-10.9266
다시보고싶	-10.9269
모르겠다	-10.927
.,.,	-10.9274
큼	-10.9277
입니까	-10.9283
멋진	-10.9284
▁성적	-10.9286
천재	-10.9286
▁청년	-10.9287
▁외면	-10.9288
▁풀어내	-10.9291
▁스릴감	-10.9295
▁후반부로	-10.9299
▁우울한	-10.9303
▁토니	-10.9304
사장	-10.9306
▁비해서	-10.9309
▁없으니	-10.9315
▁영상미와	-10.9324
et	-10.9326
▁확실하	-10.9327
신부	-10.9327
▁흥미진진한	-10.9327
보였다	-10.9336
원주고	-10.9346
였네	-10.9347
▁메세지를	-10.9348
그림	-10.9351
▁뜬금없	-10.9352
▁없군	-10.9357
▁나올수	-10.9362
▁최악임	-10.9373
▁시대적	-10.9386
설명	-10.939
▁머리속	-10.9393
▁바라보는	-10.9393
떨어지는	-10.9398
습니까	-10.9399
▁밝혀	-10.9404
겠는가	-10.9408
▁본방	-10.9413
▁와닿지	-10.9414
원래	-10.9414
킥	-10.9414
▁봤는지	-10.9414
▁소피마르소	-10.9414
삘	-10.9414
쇠	-10.9414
썬	-10.9414
졋	-10.9414
▁겨울왕국	-10.9414
▁구혜선	-10.9414
▁다이하드	-10.9414
▁도라에몽	-10.9414
▁싸이코패스	-10.9414
▁엉망진창	-10.9414
▁학창시절	-10.9414
▁간간히	-10.9414
▁김명민	-10.9415
카메론	-10.9415
▁최민수	-10.9415
▁지저분	-10.9415
▁영향을	-10.9415
▁실상	-10.9415
▁총체적	-10.9415
▁뉴스	-10.9416
▁줄리아	-10.9417
▁저평가	-10.9422
▁욕나온다	-10.9423
▁흔적	-10.9424
▁열광	-10.9425
▁국산	-10.9428
▁커피	-10.9428
▁흥미롭지	-10.9429
▁공허	-10.943
▁의견	-10.943
▁냉정	-10.9432
잔인하	-10.9438
▁좋아하지	-10.944
▁감동적임	-10.944
▁식상하다	-10.9444
질러	-10.9444
▁날리	-10.9444
▁인간적으로	-10.9447
▁처음이네	-10.9451
18	-10.9455
▁이은주	-10.946
▁있었습니다	-10.9463
고싶었	-10.9464
장군	-10.9466
▁중국영화	-10.9468
▁에로물	-10.9469
▁어디까지	-10.9469
척하는	-10.9472
▁끝남	-10.9476
했었다	-10.9481
▁좋아했던	-10.9481
▁아닌것	-10.9482
▁이따위로	-10.9484
▁훈훈하고	-10.9485
▁만든건지	-10.9488
무서워	-10.9489
▁법정	-10.9491
선생님	-10.9493
아름다운	-10.9494
▁빈약한	-10.9494
그때	-10.9495
▁약하다	-10.9497
▁화가나	-10.9507
▁go	-10.9511
▁손색이	-10.9516
감상	-10.952
노출	-10.9522
▁아련한	-10.9525
엉성	-10.9531
혀서	-10.9537
▁의도를	-10.9547
대체	-10.955
▁형식	-10.9556
걸작	-10.9565
거같네요	-10.9574
▁이것은	-10.9575
2005	-10.9578
▁가져다	-10.9596
▁OOOO	-10.9597
▁감동입니다	-10.96
▁기사	-10.9608
▁알게된	-10.9616
▁산만하	-10.9622
▁등장하는	-10.9625
▁살인자	-10.9628
▁중학교	-10.9632
▁걸리	-10.9633
자막	-10.9634
▁끄는	-10.9637
인상깊었	-10.9645
긍	-10.9647
곽	-10.9647
▁국어책	-10.9647
▁기다렸	-10.9647
▁어쨌든	-10.9647
헨	-10.9647
떳	-10.9647
▁숨막히	-10.9647
▁웬만하면	-10.9647
스러울	-10.9647
▁콜린	-10.9647
▁틀림없	-10.9648
▁심오한	-10.9648
▁관람객	-10.9649
▁강아지	-10.9649
▁안타까웠	-10.9651
▁문득	-10.9651
▁람보	-10.9652
▁미친듯이	-10.9652
▁시간아까워	-10.9655
▁패션	-10.9656
▁고인의	-10.9657
-.-	-10.9657
▁재방송	-10.9659
▁출발	-10.9659
▁여태까지	-10.9661
▁중반부터	-10.9661
▁찍으	-10.9662
▁떨어졌	-10.9662
▁뭐랄까	-10.9662
▁지루했음	-10.9665
▁이기적인	-10.9666
▁야하지도	-10.9674
▁재미없었음	-10.9675
▁미술	-10.9676
▁신경쓰	-10.9676
▁보는동안	-10.9679
▁없애	-10.9685
▁향기	-10.9691
봤을땐	-10.9691
▁마법	-10.9696
것들은	-10.9696
넘치는	-10.9698
▁고작	-10.9699
▁배울	-10.9705
팬이라	-10.9711
CGV	-10.9715
▁괴수	-10.9715
▁믿을게	-10.9716
하죠	-10.9716
궁금해	-10.9721
직원	-10.9724
썩	-10.9729
▁개소리	-10.9729
잘봤습니다	-10.9737
▁미안해	-10.9739
ᄉᄇ	-10.974
네이버	-10.9741
편부터	-10.9742
▁장소	-10.9743
힘든	-10.9743
중간에	-10.9745
성룡	-10.9753
없었다	-10.9753
▁되어야	-10.9755
▁감동받	-10.9758
재밋어요	-10.9761
▁데려다	-10.9765
것도아니고	-10.9769
▁재밋네요	-10.977
▁흐르	-10.9772
▁통해서	-10.9778
하나하나	-10.9782
▁베일	-10.9791
▁못본	-10.9791
▁만들었네	-10.9798
끝날때까지	-10.9801
작전	-10.9803
▁지금이나	-10.9804
▁죽일	-10.9804
ᄍᄍᄍ	-10.981
ᄒᄒᄒᄒ	-10.9812
▁모여	-10.9831
▁호감	-10.9832
mo	-10.9834
안좋	-10.984
▁죽는다	-10.9845
밑에	-10.9847
▁좋구	-10.9851
▁네이버평점	-10.9857
▁깨닫	-10.9858
be	-10.9865
▁태어나	-10.9866
▁들여	-10.9879
롯	-10.988
앵	-10.9883
읍	-10.9883
흉	-10.9885
뚜	-10.9885
▁엑스맨	-10.9885
▁트랜스포머	-10.9885
겸	-10.9885
묶	-10.9885
캠	-10.9885
훗	-10.9885
▁원주율	-10.9885
끓	-10.9885
▁김민종	-10.9885
▁힙합	-10.9885
헝	-10.9885
▁박평식	-10.9885
▁멈추	-10.9885
▁농담	-10.9885
▁전지현	-10.9886
▁갖춘	-10.9887
▁증명	-10.9887
파이팅	-10.9887
▁데뷔작	-10.9888
▁애국심	-10.9889
▁첫번째	-10.9889
▁안성기	-10.989
▁사라진	-10.9891
▁퇴보	-10.9892
▁중후반	-10.9893
▁꺼져	-10.9893
▁빨간	-10.9894
▁허탈	-10.9897
▁신세계	-10.9897
▁아침드라마	-10.9898
▁러브스토리	-10.9898
▁모독	-10.9901
▁피곤	-10.9902
▁환상적인	-10.9903
▁돈아깝다	-10.9907
▁부각	-10.9908
▁적당하다	-10.9911
▁터지는	-10.9911
▁제왕	-10.9915
▁이따구로	-10.9916
▁소중하	-10.9918
▁더욱더	-10.9918
웃겼음	-10.9919
▁굉장한	-10.993
▁내놓	-10.9932
▁자격	-10.9933
▁정통	-10.9935
▁미치는	-10.9938
▁조악	-10.9941
▁가관	-10.9941
할정도	-10.9948
호텔	-10.9949
▁보고싶네요	-10.9952
맥스	-10.9955
▁못하네	-10.9957
▁없을까	-10.9961
주관적	-10.9966
▁많음	-10.9971
▁명작이라고	-10.9978
영씨	-10.9982
▁대학생	-10.9983
H	-10.9986
한마디로	-10.9988
특유의	-10.9988
유쾌	-10.999
했더니	-11
▁돌아오	-11.0001
60	-11.0003
▁본적이	-11.0004
ol	-11.0015
▁이영화보고	-11.0035
억울	-11.004
설마	-11.0056
재미있음	-11.0063
45	-11.0069
▁보는사람	-11.0074
▁가상	-11.0075
▁인도영화	-11.0077
▁통쾌한	-11.0084
년동안	-11.0091
▁불쾌한	-11.0094
수가없다	-11.0112
없어요	-11.0116
▁운동	-11.0121
싼	-11.0124
▁떠오르는	-11.0127
▁198	-11.0128
http	-11.0129
드래곤	-11.0129
뎁	-11.0129
^_^	-11.0129
▁MBC	-11.0129
▁신데렐라	-11.0129
▁아쉬웠지만	-11.0129
▁이탈리아	-11.0129
▁톰크루즈	-11.0129
▁흐지부지	-11.0129
뎌	-11.0129
펠	-11.0129
▁사무라이	-11.0129
▁정확히	-11.0129
줫	-11.0129
▁최민식	-11.0129
▁더더욱	-11.0129
▁오우삼	-11.0129
▁흑역사	-11.0129
▁신세경	-11.0129
▁어떠한	-11.0129
그나저나	-11.0129
▁장동건	-11.0129
▁드래곤볼	-11.0129
▁깜놀	-11.0129
▁엽문	-11.0129
꼬맹이	-11.0129
▁다니엘	-11.0129
▁모자란	-11.0129
▁색다르	-11.013
▁스킵	-11.013
▁색깔	-11.013
▁전도연	-11.013
▁학살	-11.0131
안쓰는데	-11.0133
으세요	-11.0134
밖엔	-11.0134
▁이민기	-11.0135
▁몰락	-11.0138
▁에릭	-11.0139
▁쏘우	-11.0143
▁지브리	-11.0143
ck	-11.0144
▁태양	-11.0144
▁복수극	-11.0144
▁좋아하시는	-11.0154
▁백배	-11.0156
▁남친	-11.0157
엇어요	-11.0158
▁모아	-11.016
▁틀어주	-11.016
▁초반부터	-11.0162
비행	-11.0164
▁재밋어	-11.0168
▁의미없는	-11.0168
▁울림	-11.017
▁소소하	-11.0172
▁임신	-11.0173
자매	-11.0175
▁잼나요	-11.0177
▁성경	-11.0178
닼	-11.0191
타령	-11.0193
▁변신	-11.0194
▁빠지게	-11.0196
ma	-11.0196
▁최하	-11.0199
▁엘리	-11.0199
▁추천한다	-11.0202
▁만날	-11.0208
▁그시절	-11.0213
▁잔인하고	-11.0216
하잖아	-11.0216
볼려고	-11.0218
필드	-11.022
▁생각나게	-11.0227
취향	-11.023
▁명작이네요	-11.0231
▁슬펐다	-11.0231
▁특이한	-11.0231
쫌	-11.0243
▁재밌게봤는데	-11.0248
필름	-11.0249
▁장난감	-11.025
▁남자배우	-11.0251
▁따뜻함	-11.0267
▁낚였네	-11.0269
▁만세	-11.0278
볼꺼	-11.0294
유머	-11.0295
▁아름다웠	-11.0297
el	-11.03
▁공포감	-11.03
탁월한	-11.0307
▁다시보게	-11.032
ᄒᄒᄒᄒᄒ	-11.0331
▁비교하면	-11.0331
▁공감대	-11.0347
중딩	-11.0348
감성	-11.035
섯	-11.036
하시네요	-11.0365
▁게스트	-11.0367
믹	-11.0376
▁굳굳	-11.0376
끗	-11.0379
겄	-11.0379
▁매끄럽지	-11.0379
▁엉터리	-11.0379
▁인상깊게	-11.0379
깡	-11.0379
뼈	-11.0379
탠	-11.0379
▁어설퍼	-11.0379
▁키아누	-11.0379
딕	-11.0379
쉣	-11.0379
펴	-11.0379
▁best	-11.0379
▁미장센	-11.0379
▁황정민	-11.0379
▁완죤	-11.0379
습니당	-11.0379
▁윌리스	-11.0379
▁ᄇᄉ	-11.0379
▁함부로	-11.0379
▁일어날	-11.038
▁이정재	-11.038
▁니콜라스	-11.038
▁8.5	-11.038
몇번	-11.0381
하루	-11.0381
▁보여줌	-11.0382
://	-11.0383
▁말아먹은	-11.0383
▁낚여서	-11.0383
헌터	-11.0386
▁마틴	-11.0386
▁극찬	-11.0389
십니다	-11.039
연애	-11.039
▁교회	-11.0393
▁실패작	-11.0393
▁2003	-11.0394
▁노튼	-11.0395
▁드문	-11.0395
▁담아	-11.0396
▁오글거려서	-11.0396
▁영광	-11.0397
점도아깝다	-11.0397
▁질문	-11.0397
▁존잼	-11.0398
▁잔잔하지만	-11.0399
▁유령	-11.0402
▁집단	-11.0404
▁단역	-11.0404
▁사람마다	-11.0405
▁카피	-11.0405
▁한번씩	-11.0405
▁히트	-11.0409
얘	-11.0412
▁무슨말이	-11.0412
키우	-11.0414
▁늙었	-11.0415
▁드물	-11.0416
▁유치하기	-11.0422
▁아름다웠다	-11.0449
싶어서	-11.0451
▁또봐도	-11.0451
할텐데	-11.0451
▁재밋는데	-11.0464
가아니라	-11.047
바탕	-11.0474
▁날려	-11.0475
인것같다	-11.0481
귀여워	-11.0506
개연성	-11.0506
그렇지	-11.0507
히어로	-11.0508
▁재밌게본	-11.0508
▁생각했던	-11.0509
cg	-11.0512
▁다음편	-11.0516
달리	-11.0518
영웅	-11.0524
▁아쉬워	-11.0526
페이지	-11.053
▁조폭영화	-11.053
▁결말까지	-11.0537
▁밀어	-11.0538
▁높네	-11.0538
▁깔끔	-11.0544
,,,,,,	-11.0545
▁강하게	-11.0555
▁진정성	-11.0556
남편	-11.0563
▁허무함	-11.0564
점만점	-11.0574
▁마음속에	-11.058
씩이나	-11.058
전달	-11.0586
▁이해되	-11.0592
주의자	-11.0602
ᄃᄃᄃᄃ	-11.0604
▁지루하네	-11.0609
▁존스	-11.0621
안타까	-11.0629
퉁	-11.0634
밉	-11.0635
뱅	-11.0635
펼	-11.0635
▁과대평가	-11.0635
▁윌리엄	-11.0635
뉘	-11.0635
런닝맨	-11.0635
밨	-11.0635
벙	-11.0635
썻	-11.0635
앜	-11.0635
▁차태현	-11.0635
▁가슴아픈	-11.0635
윽	-11.0635
▁정당화	-11.0635
▁징징	-11.0636
▁멀쩡	-11.0636
▁솔까	-11.0636
▁거슬리	-11.0636
▁납치	-11.0636
▁더럽다	-11.0636
▁젊음	-11.0636
▁찬사를	-11.0637
▁클라스	-11.0638
▁경의를	-11.0639
▁죽기전에	-11.0639
징그러	-11.064
▁상당한	-11.0641
▁사라져	-11.0641
▁고마운	-11.0641
▁돈낭비	-11.0641
▁뽑아	-11.0643
▁장혁	-11.0645
▁우롱	-11.0647
▁황금	-11.0649
▁필요없음	-11.0652
노동자	-11.0654
▁울었습니다	-11.0657
하트	-11.0658
▁우왕	-11.0659
▁재미나게	-11.066
▁재밌기만	-11.066
▁알려준	-11.0661
▁겉멋만	-11.0666
▁몰랐는데	-11.0667
PD	-11.0671
▁슬퍼요	-11.0672
▁안타깝네요	-11.0674
▁나오다니	-11.0674
▁재현	-11.0677
▁잼없음	-11.0677
▁기록	-11.0678
▁실화라는	-11.0681
▁어케	-11.0684
▁슬프네요	-11.0687
▁무색	-11.069
▁하던가	-11.069
클럽	-11.0695
▁황당하	-11.0695
▁답답해서	-11.07
▁좋아하네요	-11.0701
작렬	-11.0702
▁재미있어서	-11.0707
▁없었는데	-11.0707
만들엇	-11.0708
▁꼭봐야	-11.0711
▁에러	-11.0714
활동	-11.0717
하느라	-11.0719
▁힘내	-11.072
▁다른사람	-11.0722
▁사망	-11.0727
▁어색함	-11.0729
▁안좋은	-11.0729
▁뜬금	-11.0729
갔으면	-11.0741
▁꺼내	-11.075
것같습니다	-11.0753
이아니라	-11.076
▁볼만한데	-11.0763
탐	-11.0775
▁비현실적이	-11.0776
저예산	-11.0777
지마시길	-11.0807
변화	-11.0808
영상미	-11.0811
im	-11.0831
겠냐	-11.085
▁모르나	-11.0854
되지않	-11.086
▁이따구	-11.0866
지않나	-11.0874
날때	-11.0879
졌어요	-11.0887
뿔	-11.089
풋풋	-11.0893
덮	-11.0896
쎄	-11.0897
띵	-11.0898
옵	-11.0899
▁다세포소녀	-11.0899
▁홧팅	-11.0899
럿	-11.0899
릉	-11.0899
맷	-11.0899
빤	-11.0899
쏙	-11.0899
웰	-11.0899
코스프레	-11.0899
▁끝판왕	-11.0899
▁다크나이트	-11.0899
▁아프리카	-11.0899
▁김태희	-11.0899
▁공중파	-11.0899
▁긴박감	-11.0899
▁모성애	-11.0899
▁여기저기	-11.0899
▁임청하	-11.0899
▁레이첼	-11.0899
▁아이러니	-11.0899
▁혹평	-11.0899
▁어지간	-11.0899
▁다운로드	-11.09
▁사기꾼	-11.09
때문이	-11.09
▁노골적	-11.09
▁크리스찬	-11.0901
▁눈요기	-11.0901
▁담백하	-11.0901
▁특수	-11.0901
펙트	-11.0902
up	-11.0904
창있네	-11.0904
▁원작소설	-11.0904
볼만한	-11.0905
▁바꾼	-11.0905
▁억지설정	-11.0905
▁썩어	-11.0906
▁성찰	-11.0906
▁2004	-11.0907
였으나	-11.0908
▁대표적인	-11.0908
▁재주	-11.0909
▁몇번이나	-11.0912
▁뿌리	-11.0913
별반개도	-11.0913
▁제정신	-11.0913
▁불행	-11.0922
▁어렸을적	-11.0923
▁분명히	-11.0929
▁요약	-11.0931
▁볼만했는데	-11.0931
▁존재하는	-11.0932
▁짧아	-11.0937
겁니까	-11.0939
▁기독교인	-11.094
등급	-11.0941
▁알겠지만	-11.0945
▁도중에	-11.0946
▁그지같은	-11.096
▁글쎄요	-11.0961
영화자체는	-11.0961
합니까	-11.0962
▁남발	-11.0963
▁처음이네요	-11.0971
▁재밌당	-11.0974
카드	-11.0978
▁있나요	-11.0981
▁빌리	-11.0986
▁무리수	-11.0986
▁해피	-11.0989
▁일본판	-11.099
▁할배	-11.0991
했냐	-11.1007
울음	-11.1008
였다니	-11.1009
▁찾아볼	-11.1013
나와라	-11.1013
▁유혹	-11.1025
▁외국영화	-11.103
▁주먹	-11.1033
보이는데	-11.1034
-_	-11.1037
▁고수	-11.1039
쭉	-11.1054
왜이래	-11.1055
슬퍼	-11.1055
완벽	-11.1056
▁되어서	-11.106
아이돌	-11.1063
▁손색	-11.1064
▁강제	-11.1065
▁300	-11.1068
다시봐도	-11.107
▁메리	-11.1075
별루	-11.1078
하지않은	-11.1079
마른	-11.1081
해야한다	-11.1088
▁좋아한다	-11.1101
▁배려	-11.1103
티비에서	-11.1111
▁떠들	-11.1126
▁표정연기	-11.1128
▁끊어	-11.1133
등등	-11.1133
묘사	-11.1135
▁끝날때	-11.1138
▁드러나	-11.1138
▁봐줄	-11.1151
즌	-11.1154
▁멋있어	-11.1156
집중	-11.1159
뜩	-11.1168
둡	-11.1169
▁송혜교	-11.1169
쌩	-11.1169
펀	-11.1169
▁The	-11.1169
▁고맙습니다	-11.1169
▁드림웍스	-11.1169
▁똑바로	-11.1169
▁미야자키	-11.1169
▁인종차별	-11.1169
둬	-11.1169
룸	-11.1169
룹	-11.1169
욬	-11.1169
켈	-11.1169
핏	-11.1169
▁자본주의	-11.1169
▁절제된	-11.1169
▁어둡고	-11.1169
개인적으론	-11.1169
▁한쿡영화	-11.1169
▁2013	-11.1169
나옵니다	-11.1169
▁태어난	-11.1169
▁오인혜	-11.1169
▁정신나간	-11.1169
▁사로잡	-11.1169
▁감수성	-11.117
▁끊임없	-11.117
▁짐승	-11.117
▁7.5	-11.1171
▁돋보인다	-11.1171
all	-11.1172
▁모티브	-11.1172
ᄂᄂ	-11.1172
▁가해자	-11.1173
▁휴먼	-11.1175
▁감옥	-11.1175
▁접근	-11.1177
라이브	-11.1178
▁지나친	-11.1179
▁존경합니다	-11.118
▁출현	-11.1182
▁서극	-11.1182
▁절반	-11.1185
▁스토리라인	-11.119
▁확실한	-11.119
따윈	-11.119
▁중간부터	-11.1191
▁총알	-11.1192
▁대실망	-11.1195
▁일탈	-11.1196
▁못생겼	-11.1197
▁남자라면	-11.1199
▁예산	-11.1207
▁건강	-11.121
일수도	-11.121
▁울었던	-11.1213
▁경제	-11.1216
▁없구나	-11.1217
▁초등학교때	-11.1217
▁슬프지만	-11.1218
역겹	-11.1218
▁발레	-11.1219
▁나은듯	-11.122
▁먹먹하다	-11.122
▁훌륭함	-11.1222
▁있겠지	-11.1227
과도한	-11.123
▁아까워요	-11.1238
대단히	-11.1238
▁철학적인	-11.1239
▁예쁘게	-11.124
▁전락	-11.1242
▁잃어	-11.1244
▁감상하	-11.1254
▁부디	-11.1256
▁차마	-11.1258
느님	-11.1263
▁예술성	-11.1268
▁마크	-11.1268
▁wh	-11.1287
▁향해	-11.1309
▁재미있네	-11.1315
▁어린이들	-11.1331
▁솔직한	-11.1331
▁존재감	-11.1334
▁존재한다	-11.1343
불륜	-11.1344
때메	-11.1346
▁몰입되	-11.1349
▁마르	-11.1355
짓거리	-11.1358
ever	-11.1361
--;	-11.1365
알바들	-11.138
▁느껴져	-11.1387
▁가졌	-11.1401
달까	-11.1405
▁압도	-11.1413
홍보	-11.1417
▁환상적이	-11.1419
것일까	-11.1421
어이없네	-11.1424
▁끌려	-11.1426
▁터져	-11.1433
영화관에서	-11.1437
▁얘들	-11.144
챙	-11.1442
딜	-11.1442
첩	-11.1445
펑	-11.1446
zzz	-11.1447
↓	-11.1447
▁뮤직비디오	-11.1447
▁용두사미	-11.1447
▁팀버튼	-11.1447
▁파워레인저	-11.1447
mbc	-11.1447
▁송지효	-11.1447
▁클린트	-11.1447
▁뚝뚝	-11.1447
▁뜨거운	-11.1447
▁팍팍	-11.1447
▁나쁘진	-11.1447
▁두려움	-11.1447
떄문에	-11.1447
▁뉴욕	-11.1447
▁비정상	-11.1447
▁이연희	-11.1447
▁흐뭇	-11.1447
▁힘내세요	-11.1448
▁무너지	-11.1448
앵글	-11.1449
▁짧게	-11.145
▁즐겁고	-11.145
배속으로	-11.1451
▁내인생최고의	-11.1451
▁놀랬	-11.1451
▁초능력	-11.1452
▁비싼	-11.1452
▁비롯	-11.1452
약간	-11.1458
▁사라졌	-11.146
이건뭐	-11.1462
▁넘어선	-11.1464
▁볼만해요	-11.1467
부턴	-11.1468
흥미를	-11.1472
▁그지없	-11.1478
▁중학교때	-11.1481
▁사실적으로	-11.1483
줬으면	-11.1484
▁현실적으로	-11.1485
써서	-11.1486
▁받아들이	-11.1496
▁개독	-11.1498
▁최고였습니다	-11.15
▁첨이네	-11.1504
▁미국판	-11.1507
▁담아내	-11.1511
▁되었는데	-11.152
▁선동영화	-11.1523
▁인간적인	-11.1529
▁그지같	-11.1535
▁다시보고싶은	-11.1538
▁사랑스럽	-11.1538
▁멀리	-11.1546
왔던	-11.1548
▁일생	-11.1552
▁엉성함	-11.1563
라기보다	-11.1566
▁so	-11.1568
하고픈	-11.1574
▁좋았어	-11.1578
녀석들	-11.1591
▁잠자	-11.1592
죽는줄	-11.1593
▁불편함	-11.1602
러브	-11.1611
▁허접하다	-11.1616
알았	-11.1623
핵	-11.163
톰	-11.1632
낙	-11.1634
흐름	-11.1634
카메라	-11.1635
볼걸	-11.1638
씹	-11.1638
진정한	-11.1638
시간낭비	-11.1639
이쁘고	-11.1639
제작비	-11.1652
봣음	-11.1655
겐	-11.1656
좋았어요	-11.1658
▁기억될	-11.1659
먼저	-11.1659
▁죽을뻔	-11.1667
조각	-11.1674
훌륭한	-11.1675
관련	-11.168
▁환자	-11.1685
남녀	-11.1689
배우님	-11.1697
▁감동받았	-11.1702
고싶지	-11.173
쯧	-11.1732
▁평점조절	-11.1732
꿨	-11.1732
▁고스란히	-11.1732
▁엉덩이	-11.1732
▁인터뷰	-11.1732
▁찝찝한	-11.1732
▁클리셰	-11.1732
▁서프라이즈	-11.1732
▁양동근	-11.1732
▁임권택	-11.1732
꺄	-11.1732
넼	-11.1732
▁어우러진	-11.1732
▁주상욱	-11.1732
▁말았어야	-11.1732
▁김강우	-11.1732
▁조승우	-11.1732
▁구역질	-11.1733
▁불후의	-11.1733
▁일베충	-11.1733
▁암걸리	-11.1733
▁신민아	-11.1733
▁활용	-11.1733
▁이범수	-11.1734
▁웅장	-11.1734
▁흥미롭고	-11.1734
▁잃어버린	-11.1734
▁알게해준	-11.1737
▁유지태	-11.1738
▁튀어	-11.1739
▁친절	-11.1741
▁은퇴	-11.1741
▁그럼에도	-11.1741
마인드	-11.1743
▁지들끼리	-11.1744
봣습니다	-11.1744
점대라니	-11.1745
▁산만한	-11.1746
▁어이없어서	-11.1746
▁잘생기고	-11.1746
▁추락	-11.1748
▁간절	-11.1751
▁선정적	-11.1751
▁불법	-11.1752
▁성숙	-11.1752
▁여왕	-11.1753
▁타락	-11.1754
그래요	-11.1754
▁돌려줘	-11.1757
▁신념	-11.176
▁좋아한다면	-11.1762
▁없었으면	-11.1765
▁뻔히	-11.1768
▁광팬	-11.177
▁98	-11.1773
▁관객에게	-11.1776
▁허무하게	-11.1782
▁아동용	-11.1782
▁좋아해요	-11.1793
▁어린이용	-11.1794
▁깎아	-11.1795
▁애국	-11.1796
같았음	-11.1803
야되는데	-11.1807
▁전투씬	-11.1818
인간들	-11.1821
ul	-11.1827
▁않았으면	-11.1832
빠지고	-11.1857
요소를	-11.1859
번씩	-11.1874
재미잇	-11.1876
가능한	-11.188
▁외치	-11.1886
영환줄	-11.1887
▁빨아	-11.1891
▁던지는	-11.1904
▁수준이하	-11.1909
▁누워	-11.1916
하곤	-11.1921
아줌마	-11.1937
느와르	-11.1938
▁괜찮네	-11.194
▁의식	-11.1941
왜이리	-11.1942
이쁘다	-11.1946
▁조금씩	-11.1949
그자체	-11.1958
▁제작사	-11.196
예능	-11.1962
▁되돌아	-11.1963
존재	-11.1964
▁단편영화	-11.1982
▁찾아볼수	-11.2004
싶을때	-11.2009
wo	-11.2012
어울리는	-11.202
▁리메이크작	-11.2023
▁ebs	-11.2026
흰	-11.2026
▁서스펜스	-11.2026
▁웹툰	-11.2026
▁펭귄	-11.2026
웩	-11.2026
▁베트남	-11.2027
▁조용히	-11.2027
▁큐브	-11.2027
▁강지환	-11.2027
▁안타까울	-11.2027
▁특징	-11.2027
▁임수정	-11.2027
씨리즈	-11.2027
▁일요일	-11.2027
▁러셀	-11.2027
▁닥터	-11.2027
▁어울려	-11.2027
▁퍼즐	-11.2027
귀요미	-11.2028
▁이해안가	-11.2028
▁일깨워주는	-11.2029
▁증말	-11.2029
▁푸른	-11.2029
▁가끔씩	-11.203
▁빠져드는	-11.2033
▁언론	-11.2033
▁고찰	-11.2034
▁자세히	-11.2034
▁알았더니	-11.2035
▁닮아	-11.2038
▁지루했어요	-11.204
▁않았을까	-11.2041
알수있	-11.2042
▁심심하	-11.2043
▁끼워	-11.2043
▁놀라울	-11.2044
▁여튼	-11.2044
▁중반부	-11.2045
▁99	-11.2047
▁물씬	-11.2047
▁지났지만	-11.2048
▁공감가는	-11.2049
▁우익	-11.205
▁깔끔하고	-11.2051
거든요	-11.2052
▁때문이다	-11.2056
교육	-11.2058
▁상영시간	-11.2058
▁엉성하다	-11.206
▁말해주는	-11.2066
▁최고였어요	-11.2066
▁초중반	-11.2067
▁생각나네요	-11.207
▁도통	-11.2071
멘트	-11.2071
▁비극적	-11.2072
▁됐는데	-11.2074
▁압도적	-11.2075
▁나누	-11.2076
▁주목	-11.2078
▁허술하고	-11.2081
▁뻔해서	-11.2081
▁존내	-11.2091
하지마세요	-11.2094
쳐먹	-11.2102
▁볼거없	-11.2104
▁잊혀	-11.2104
▁드러내	-11.2105
짱짱짱	-11.2118
겠군	-11.2145
▁중반까지	-11.2146
엿음	-11.2152
레이드	-11.2163
관계를	-11.2172
▁진부함	-11.2174
▁재미있었던	-11.2184
▁가려	-11.22
시켜주	-11.2208
▁어처구니없	-11.224
다음으로	-11.2243
깎	-11.2248
OST	-11.225
감사합니다	-11.225
▁초딩들	-11.2251
훨씬	-11.2251
꽝	-11.2253
극장판	-11.2261
▁잃지	-11.2284
시리즈중	-11.2287
95	-11.2292
▁정치적	-11.23
▁상관	-11.2305
▁만들어준	-11.2307
▁오글거려	-11.2309
픔	-11.2311
거예요	-11.2324
콧	-11.2326
쿡	-11.2329
맙	-11.2329
▁ocn	-11.2329
쌈	-11.2329
췄	-11.2329
▁기대됩니다	-11.2329
▁매트릭스	-11.2329
▁보냅니다	-11.2329
▁오리지널	-11.2329
▁재발견	-11.2329
▁컨저링	-11.2329
人	-11.2329
긔	-11.2329
뒀	-11.2329
뱉	-11.2329
뺨	-11.2329
쉰	-11.2329
엎	-11.2329
재밌게봤습니다	-11.2329
▁내러티브	-11.233
톨	-11.233
▁어울린다	-11.233
▁멘붕	-11.233
▁삽입	-11.233
▁하이킥	-11.233
▁ᄅᄋ	-11.233
▁잠수함	-11.233
▁저절로	-11.233
^.^	-11.233
▁흡사	-11.233
▁록키	-11.2331
▁어쩌라고	-11.2331
▁묘미	-11.2331
▁위대함	-11.2331
▁간첩	-11.2331
▁잔인하기만	-11.2332
▁새롭게	-11.2332
▁온몸	-11.2332
▁별한개도	-11.2332
▁스티브	-11.2333
▁떠오르	-11.2335
▁말이필요없는	-11.2335
▁잃고	-11.2336
ent	-11.2337
▁증거	-11.2337
▁대표작	-11.2337
▁역쉬	-11.2338
▁구리다	-11.2341
▁절실	-11.2343
▁바랬	-11.2344
동아리	-11.2345
▁재료	-11.2347
▁해도해도	-11.2348
▁가르쳐	-11.2349
▁만들어주세요	-11.2349
▁언급	-11.235
▁딱딱	-11.2351
▁내보내	-11.2353
▁전세계	-11.2355
▁원표	-11.2356
▁헐크	-11.2358
▁이나영	-11.2364
▁모르겠는데	-11.2366
▁아쉽긴	-11.2378
▁더빙판	-11.2378
▁실소	-11.2379
안됐	-11.2379
▁고발	-11.2381
하지않는	-11.2385
▁호소	-11.2388
황당	-11.2398
▁제목부터	-11.2399
채널에서	-11.2404
▁필수	-11.2415
끼들	-11.2438
▁타이틀	-11.2455
▁모른	-11.2456
폭탄	-11.2457
▁서사	-11.2459
괴물	-11.2471
▁비현실적인	-11.2476
됐어요	-11.2489
빼	-11.2495
같으니	-11.251
▁악평	-11.2513
티브	-11.2521
▁읽어보	-11.2527
방울	-11.2559
되었던	-11.2565
▁떨어진	-11.2565
퀄리티	-11.2567
쳤던	-11.2572
넌	-11.2572
10000	-11.2575
슈퍼	-11.2577
▁성우들	-11.2578
탈출	-11.2581
괜히	-11.2582
낮아서	-11.2584
방법	-11.2592
녀석	-11.2597
▁겉멋	-11.2604
천국	-11.2606
젼	-11.2623
▁소름돋았	-11.2631
▁공짜	-11.2636
▁마음속	-11.2641
률	-11.2642
q	-11.2642
▁KBS	-11.2642
샷	-11.2642
쏠	-11.2642
헷	-11.2642
Z	-11.2642
▁슬래셔	-11.2642
▁에일리언	-11.2642
▁오타쿠	-11.2642
▁이스트우드	-11.2642
▁인터스텔라	-11.2642
▁채플린	-11.2642
▁혹성탈출	-11.2642
륵	-11.2642
엣	-11.2642
핳	-11.2642
꾹	-11.2642
댐	-11.2642
댕	-11.2642
륙	-11.2642
흙	-11.2642
▁박신양	-11.2642
▁불면증	-11.2642
▁기분좋게	-11.2642
▁두근두근	-11.2642
▁관람불가	-11.2642
▁미치도록	-11.2642
▁엉엉	-11.2642
▁섭외	-11.2642
▁케이트	-11.2642
▁빅뱅	-11.2642
▁화려함	-11.2642
▁나타내	-11.2643
▁그들만의	-11.2643
ᅩᅩ	-11.2643
▁잘만들어진	-11.2643
▁묘하게	-11.2644
씁니다	-11.2644
▁유아인	-11.2644
즐거워	-11.2645
▁패턴	-11.2645
▁스콧	-11.2645
▁말아라	-11.2645
▁닮은	-11.2646
▁묻어나는	-11.2646
▁경쾌	-11.2646
▁씁쓸한	-11.2646
▁비현실적	-11.2648
▁No	-11.2648
▁재평가	-11.2649
▁맞춘	-11.265
▁적절히	-11.265
▁당최	-11.2652
▁케이지	-11.2652
▁아까웠던	-11.2654
▁느낌이랄까	-11.2655
해지네요	-11.2657
▁악플	-11.2658
▁웃어야	-11.2659
▁모든것을	-11.2659
▁공존	-11.266
▁동료	-11.2661
▁신나게	-11.2661
▁속아서	-11.2662
▁이번엔	-11.2665
봣던	-11.2665
▁고향	-11.2666
▁지금껏	-11.2666
▁심심해서	-11.2666
▁창조	-11.2667
붕괴	-11.2667
▁허술하다	-11.2668
▁장나라	-11.2668
같았는데	-11.267
▁중요하다	-11.267
▁많았던	-11.2675
▁무얼	-11.2675
▁알수없는	-11.2677
▁예매	-11.2677
▁노예	-11.2679
▁예술적	-11.2681
▁볼만했음	-11.2681
▁일베	-11.2682
▁아니겠지	-11.2682
▁최저	-11.2683
▁종영	-11.2685
▁몽환적인	-11.2687
▁만들겠다	-11.2688
올림	-11.2691
▁재미가없다	-11.2692
▁뻔하지만	-11.2692
▁불편하다	-11.2693
▁졸면서	-11.2694
▁멋있어요	-11.2695
▁마초	-11.2696
▁마녀	-11.27
파티	-11.2704
▁죽을때	-11.2706
뻐	-11.2717
해주길래	-11.272
▁작위적인	-11.2721
빼놓	-11.2771
▁합쳐	-11.2784
낚였	-11.2824
ᅳᅮ	-11.2827
본것중	-11.2859
ge	-11.2859
버렸음	-11.2864
낳	-11.29
쪼	-11.2904
슬픈	-11.2913
교훈	-11.2917
빼면	-11.2919
▁바라보	-11.2922
ᅲᅲᅲᅲᅲᅲᅲᅲ	-11.2924
결론	-11.293
중요한	-11.2938
섹스	-11.2939
을위해	-11.2961
씁	-11.2962
캡	-11.2964
됌	-11.2965
엌	-11.2965
팡	-11.2965
ᅦ	-11.2965
▁가볍고	-11.2965
▁스칼렛	-11.2965
▁쌩뚱맞	-11.2965
▁어설픔	-11.2965
▁역사왜곡	-11.2965
▁콘서트	-11.2965
▁크리스토퍼	-11.2965
댈	-11.2965
샹	-11.2965
숫	-11.2965
쌀	-11.2965
쿄	-11.2965
펄	-11.2965
▁쏠쏠	-11.2965
▁집어넣	-11.2965
▁맙시다	-11.2965
▁홍진호	-11.2965
샀	-11.2965
#	-11.2965
묵직한	-11.2965
▁탕웨이	-11.2965
▁나발이고	-11.2965
▁못생긴	-11.2965
▁스텝업	-11.2965
바이러스	-11.2965
▁사다코	-11.2965
▁오그라든다	-11.2965
▁훈남	-11.2966
▁고질라	-11.2966
▁담아낸	-11.2966
▁둘째	-11.2966
ill	-11.2967
▁안타까워	-11.2967
▁저녁	-11.2967
▁용가리	-11.2968
▁무게감	-11.2968
▁이승기	-11.2969
▁결합	-11.2969
▁웬만한	-11.297
▁과잉	-11.297
▁지루하지않고	-11.297
▁이름값	-11.297
▁때우기	-11.2971
▁감동적이었습니다	-11.2971
▁응원합니다	-11.2974
▁환불	-11.2974
▁내겐	-11.2978
▁깔끔하게	-11.2978
▁스릴있고	-11.2978
▁위하여	-11.2979
▁팬이라면	-11.2981
데이트	-11.2981
좋아할만한	-11.2982
소중함	-11.2983
▁시간아까움	-11.2983
▁씨발	-11.2984
▁느린	-11.2985
▁치열	-11.2985
▁차원이	-11.2986
▁따뜻하게	-11.2987
▁멋있었다	-11.2989
▁봤었던	-11.299
▁실화라니	-11.2991
▁2001	-11.2992
헤헤	-11.2994
▁느꼈던	-11.2994
▁대책	-11.2998
▁젊은이들	-11.3
▁울었네요	-11.3004
라이트	-11.3009
▁봐왔	-11.3023
재밋게봣	-11.3025
▁좀비물	-11.303
▁오락성	-11.303
▁첫장면	-11.303
해줬으면	-11.3052
▁같기도	-11.306
▁고르	-11.3065
▁고래	-11.3067
▁서우	-11.307
객관적으로	-11.3115
▁집중력	-11.313
▁밑에분	-11.3196
▁보여주려	-11.32
로인해	-11.3216
몇번이고	-11.3226
▁평론	-11.3234
▁들어왔	-11.3236
곰	-11.3249
녹	-11.325
캬	-11.325
끊	-11.325
같습니다	-11.3251
종류	-11.3261
킴	-11.3264
엉망	-11.3283
▁맞지않	-11.3286
줍	-11.3296
냅	-11.3298
▁리암니슨	-11.3298
▁소름끼친다	-11.3298
▁재밌게봤음	-11.3298
▁휴머니즘	-11.3298
꽂	-11.3298
샬	-11.3298
▁줄리엣	-11.3298
됴	-11.3298
칩	-11.3298
횽	-11.3298
▁뭔내용인지	-11.3298
▁양조위	-11.3298
안남기는데	-11.3298
▁신현준	-11.3298
▁강혜정	-11.3298
▁어떨까	-11.3298
▁흘렀	-11.3298
▁충무로	-11.3298
▁어려울	-11.3298
▁강호동	-11.3298
▁불필요한	-11.3298
▁몬스터	-11.3298
스캔들	-11.3298
윤계상	-11.3298
▁전문성우	-11.3298
▁정재영	-11.3299
김남길	-11.3299
할수밖에	-11.3299
▁유아용	-11.3299
▁레이싱	-11.3299
▁침묵	-11.33
▁어쩌라는	-11.33
▁0.5	-11.33
▁거대한	-11.33
▁어려웠	-11.33
▁촬영기법	-11.33
변호사	-11.33
▁자칫	-11.33
▁팔아먹	-11.33
▁에로틱	-11.33
▁꺼버렸다	-11.3302
▁황홀	-11.3302
▁촌스러운	-11.3302
▁갖추	-11.3302
@@	-11.3303
ery	-11.3303
▁프레디	-11.3305
▁신파극	-11.3305
점드림	-11.3306
▁종합	-11.3308
▁졸려서	-11.3309
▁오싹	-11.3309
▁와이어	-11.3309
▁정도껏	-11.3312
▁느꼈습니다	-11.3312
▁말할것도	-11.3312
▁처참	-11.3314
▁아름다웠던	-11.3315
▁재미있던데	-11.3316
▁호평	-11.3316
▁질투	-11.3316
▁다를게	-11.3317
버젼	-11.3318
▁남주인공	-11.3323
▁알앗	-11.3328
▁도덕	-11.3329
▁예수님	-11.3338
▁앞부분	-11.3353
과정을	-11.336
거아닌가	-11.3371
▁과장되	-11.339
▁어수선하	-11.3408
삶은	-11.3437
▁탄탄하	-11.3446
▁풀었	-11.3462
▁교감	-11.3468
하우스	-11.352
닼ᄏᄏᄏ	-11.3555
▁사실적이	-11.357
▁굉장	-11.3572
취향은	-11.3601
J	-11.3606
빅	-11.3607
매니아	-11.3607
웬	-11.3607
저렇게	-11.3608
오히려	-11.3608
예고편	-11.361
흥행	-11.3612
짜증난다	-11.3614
▁do	-11.3617
gt	-11.3641
훔	-11.3642
쵝	-11.3642
죤	-11.3643
훼	-11.3643
듀	-11.3643
▁kbs	-11.3643
▁리즈시절	-11.3643
▁브래드피트	-11.3643
▁스탤론	-11.3643
▁왠만해선	-11.3643
▁인상깊은	-11.3643
▁후덜덜	-11.3643
닦	-11.3643
안봤으면	-11.3643
탔	-11.3643
햄	-11.3643
▁깨알같은	-11.3643
▁서부극	-11.3643
▁에이리언	-11.3643
촉	-11.3643
▁김하늘	-11.3643
▁무슨내용인지	-11.3643
▁올레티비	-11.3643
▁치밀한	-11.3643
-0-	-11.3643
▁로드무비	-11.3643
▁이동욱	-11.3643
▁알맹이	-11.3643
▁나중엔	-11.3643
쥐어짜	-11.3643
▁and	-11.3643
▁뛰쳐	-11.3643
▁콤비	-11.3643
▁옹박	-11.3643
▁한정된	-11.3643
▁못미치는	-11.3643
▁박해일	-11.3643
▁빵터짐	-11.3644
▁흔히	-11.3644
▁이성재	-11.3644
▁예뻐요	-11.3644
bbbb	-11.3644
▁슈렉	-11.3644
▁루이스	-11.3645
▁안쓰러	-11.3646
▁가득찬	-11.3646
▁이준기	-11.3647
▁실컷	-11.3647
▁목숨을	-11.3648
▁새롭고	-11.3648
▁발휘	-11.3648
▁악몽	-11.3649
▁찰리	-11.3649
▁얼른	-11.3649
▁적나라하	-11.365
▁저평가된	-11.3651
▁선율	-11.3651
▁첨본다	-11.3652
▁억지스러움	-11.3652
▁언제쯤	-11.3654
▁뇌리에	-11.3654
▁습작	-11.3655
▁놓친	-11.3655
▁미안하지만	-11.3658
▁찾았다	-11.3658
▁끝내주는	-11.3662
▁몰입하면서	-11.3662
▁알고보니	-11.3665
▁고백	-11.3667
▁얻을	-11.3667
▁표본	-11.3669
▁결과물	-11.3678
▁욕나오는	-11.3679
ig	-11.3692
▁조용하	-11.372
▁떠난	-11.3721
그치만	-11.3726
때문인지	-11.3731
▁어린애들	-11.3737
파괴	-11.377
▁잠든	-11.3779
▁어이가없	-11.3805
베르	-11.3833
어쩔수없	-11.3835
싶을정도	-11.3856
▁기분좋은	-11.3859
팬으로서	-11.3869
▁쩔었	-11.3871
어수선	-11.3888
볼수없	-11.3896
▁볼게없	-11.3902
찾았	-11.3909
▁주고싶은	-11.3915
의미로	-11.3929
▁느려	-11.3947
찍었	-11.3959
펑펑	-11.3974
버렸어	-11.3979
good	-11.398
청춘	-11.3982
굿굿	-11.3983
뀌	-11.3997
▁명배우들	-11.3998
뭇	-11.3999
○	-11.4
욜	-11.4
뻘	-11.4
ᄑ	-11.4
▁아메리칸	-11.4
▁원맨쇼	-11.4
▁웨슬리	-11.4
▁찝찝함	-11.4
멕	-11.4
뺀	-11.4
솟	-11.4
쫙	-11.4
쬐	-11.4
▁떠올리게	-11.4
▁최곱니다	-11.4
씌	-11.4
젓	-11.4
프로젝트	-11.4
▁듣보잡	-11.4
▁무의미한	-11.4
▁크루즈	-11.4
▁한예슬	-11.4
naver	-11.4
▁문근영	-11.4
도그렇고	-11.4
▁추악한	-11.4
▁잘생김	-11.4
▁단체로	-11.4
▁뒤집어	-11.4
▁깜찍	-11.4
▁쌍욕	-11.4
▁고현정	-11.4
봅시다	-11.4
▁암울한	-11.4
▁페이크다큐	-11.4
▁연관성	-11.4
▁미치겠다	-11.4
▁빨리감기	-11.4
▁유오성	-11.4
허니잼	-11.4001
▁졸업작품	-11.4002
▁매튜	-11.4002
뿐더러	-11.4002
▁조인성	-11.4002
▁일어난	-11.4002
▁완소	-11.4002
▁꺼버림	-11.4002
▁소리지르	-11.4002
▁my	-11.4004
▁하얀	-11.4005
▁깍아	-11.4005
▁육체	-11.4006
▁끝내준다	-11.4006
▁화가난다	-11.4006
▁재치있	-11.4008
▁느껴짐	-11.4009
▁2008	-11.4009
▁일대기	-11.4009
▁투표	-11.401
▁괜찮던데	-11.4011
▁미흡	-11.4012
▁적응	-11.4012
▁껏다	-11.4013
▁지겨운	-11.4014
▁녹화	-11.4014
별한개	-11.4018
▁대략	-11.4018
▁교차	-11.402
▁추잡	-11.402
▁어느새	-11.4021
▁대가리	-11.4021
▁졸업	-11.4025
▁창작	-11.4027
▁괴작	-11.4027
시킴	-11.4036
을위한	-11.4051
▁밥먹	-11.4078
▁즐겨보	-11.4089
▁탁월	-11.4104
지말아야	-11.4113
기억에남는	-11.4164
▁서민	-11.4195
▁객관적	-11.42
▁드러난	-11.4208
있으면서	-11.4241
▁특별하	-11.4246
▁나쁜놈	-11.4255
같았다	-11.4281
미래를	-11.4295
▁보게되었	-11.4296
▁어색하지	-11.4322
밝히	-11.4361
444	-11.4362
뮤지컬	-11.4363
프랑스	-11.4364
슬픔	-11.4365
홍콩	-11.4366
1,2	-11.4366
튜	-11.4368
몸매	-11.4369
펐	-11.437
맴	-11.437
덥	-11.437
▁로보캅	-11.437
▁어벤져스	-11.437
귓	-11.437
뇨	-11.437
돕	-11.437
샌	-11.437
힛	-11.437
▁까메오	-11.437
▁떠오른다	-11.437
▁멜깁슨	-11.437
▁보면볼수록	-11.437
▁엑스트라	-11.437
▁유치뽕짝	-11.437
▁페이크	-11.437
괘	-11.437
궈	-11.437
쌔	-11.437
쑤	-11.437
욧	-11.437
텀	-11.437
툰	-11.437
▁브래드	-11.437
▁스타일리쉬	-11.437
▁노무현	-11.437
▁무책임	-11.437
▁눈뜨고	-11.437
▁덴젤	-11.437
▁지하철	-11.437
▁장쯔이	-11.437
▁해리슨	-11.437
지맙시다	-11.437
▁애절한	-11.437
▁중딩때	-11.4371
▁금요일	-11.4371
▁훈련	-11.4371
▁피라냐	-11.4371
▁최선을	-11.4371
테잎	-11.4371
▁옹호	-11.4371
▁차가운	-11.4371
오디션	-11.4371
▁믿겨지지	-11.4371
▁에너지	-11.4371
▁가면갈수록	-11.4371
▁크리스틴	-11.4371
▁여진구	-11.4371
▁측면	-11.4371
▁효민	-11.4371
▁싱겁	-11.4372
▁어려워	-11.4372
▁나눠	-11.4372
▁나타난	-11.4372
▁시청율	-11.4372
▁이뻐요	-11.4372
▁한지민	-11.4372
연기너무잘	-11.4373
▁자연스럽고	-11.4374
▁즐겁다	-11.4374
▁갑갑	-11.4375
▁흥해라	-11.4375
▁영화관가서	-11.4376
보고난후	-11.4376
▁빠순이들	-11.4378
뻔한스토리	-11.4378
▁개념없	-11.4379
▁독백	-11.438
▁급전개	-11.438
▁외로운	-11.438
▁할말이없다	-11.438
▁회복	-11.4381
▁리암	-11.4381
▁출연료	-11.4383
▁행복해지는	-11.4386
▁문학	-11.4386
▁엔딩곡	-11.4386
▁명곡	-11.4388
재미가없	-11.4394
흐흐	-11.4402
▁추천해주고	-11.4411
▁이해못하	-11.4418
게아니라	-11.4424
▁잼써	-11.4425
기다리	-11.4425
cgv	-11.4432
▁경쟁	-11.444
메시지를	-11.4477
▁따듯하	-11.449
보게됨	-11.4493
기위한	-11.4534
편견을	-11.4559
▁터졌	-11.4639
▁시간아까운	-11.4641
▁놀래키	-11.4683
▁몽환적	-11.4701
▁아역배우	-11.4703
우리들의	-11.471
▁짧지	-11.4723
조금이라도	-11.4735
▁실망스러웠	-11.4738
안타깝	-11.4745
되어가는	-11.4746
겻	-11.4749
채널	-11.4753
렘	-11.4754
·	-11.4755
갸	-11.4755
▁OCN	-11.4755
▁love	-11.4755
▁어땠을까	-11.4755
▁엄태웅	-11.4755
▁옴니버스	-11.4755
껍	-11.4755
아담샌들러	-11.4755
좁	-11.4755
짖	-11.4755
쪄	-11.4755
▁아날로그	-11.4755
▁톰행크스	-11.4755
▁핸드폰	-11.4755
롬	-11.4755
썽	-11.4755
쨩	-11.4755
▁거슬린다	-11.4755
▁무삭제	-11.4755
▁주옥같은	-11.4755
▁뒤통수	-11.4755
▁뚜렷	-11.4755
▁로렌스	-11.4755
▁일으키	-11.4755
▁유치원생	-11.4755
▁괜춘	-11.4755
▁다녀온	-11.4755
▁보기드문	-11.4755
▁빡쳐서	-11.4755
▁서서히	-11.4755
▁재해석	-11.4755
▁아쉬웠다	-11.4755
▁마피아	-11.4755
▁신들린	-11.4755
▁활약	-11.4755
▁토마스	-11.4755
▁영구와	-11.4755
▁낯선	-11.4755
▁도입부	-11.4755
▁좌파	-11.4755
▁디자인	-11.4755
▁관대하다	-11.4755
▁압박	-11.4756
▁토이스토리	-11.4756
▁가만히	-11.4756
▁설렘	-11.4756
클래스	-11.4756
기대안했는데	-11.4757
▁무섭지도않고	-11.4757
좌빨	-11.4757
▁조선족	-11.4758
▁탐욕	-11.4758
▁멋집니다	-11.4758
▁낮춰	-11.4758
▁알겠으나	-11.4758
▁조용한	-11.4759
▁똥폼	-11.4759
짠	-11.476
▁의심스럽다	-11.476
생겻	-11.4761
▁반성해라	-11.4762
▁불꽃	-11.4762
▁개봉했을때	-11.4762
[	-11.4762
▁먹먹해지는	-11.4763
꽤	-11.4763
▁갑작스	-11.4765
▁실존	-11.4766
▁현빈	-11.4768
통쾌	-11.4769
▁반지의	-11.477
▁벌어지는	-11.477
▁망했는지	-11.4773
▁질질끄는	-11.4773
▁일방적	-11.478
▁풀어가는	-11.4784
보고나면	-11.4789
▁심오하	-11.4803
심리를	-11.4812
본질을	-11.4887
▁얻었	-11.4901
▁따른	-11.4908
gg	-11.4926
생각해보면	-11.4946
되었으면	-11.4959
▁당황스럽	-11.4968
▁울뻔	-11.5002
잊혀지	-11.5018
끝났으면	-11.5038
▁모아놓	-11.5076
생기고	-11.5081
뭐하러	-11.5088
훌륭	-11.512
▁별반개	-11.5133
▁어딜	-11.5142
어지네요	-11.5148
빠순이	-11.5154
훌	-11.5155
훅	-11.5155
톡	-11.5155
ight	-11.5155
ᅭ	-11.5155
’	-11.5155
▁맥라이언	-11.5155
▁브루스윌리스	-11.5155
▁손꼽히는	-11.5155
▁쌍팔년도	-11.5155
▁어중간한	-11.5155
▁폴워커	-11.5155
꿋	-11.5155
데미무어	-11.5155
밭	-11.5155
쌤	-11.5155
씽	-11.5155
얹	-11.5155
판타스틱	-11.5155
퍽	-11.5155
ᆞ	-11.5155
▁고마워요	-11.5155
▁어메이징	-11.5155
▁정신건강에	-11.5155
캅	-11.5155
▁으리으리	-11.5155
▁고맙다	-11.5155
▁피터팬	-11.5155
▁하루종일	-11.5155
▁후유증	-11.5155
▁고소영	-11.5155
▁어려움	-11.5155
▁조재현	-11.5155
▁장만옥	-11.5155
▁캐서린	-11.5155
▁어떨지	-11.5155
▁민주주의	-11.5155
▁가깝다	-11.5155
▁기괴한	-11.5155
▁버무려	-11.5155
▁정유미	-11.5155
▁사춘기	-11.5155
▁이종석	-11.5155
▁어디선가	-11.5155
▁어리석	-11.5155
▁슈스케	-11.5156
▁잔잔히	-11.5156
▁풋풋하고	-11.5156
▁테론	-11.5156
랍시고	-11.5156
▁다가온다	-11.5156
▁씹노잼	-11.5157
▁for	-11.5157
*^^*	-11.5157
▁김수로	-11.5157
각각의	-11.5157
▁거침없	-11.5157
▁김선아	-11.5157
▁쾌감	-11.5158
▁잊혀지지않는	-11.5158
▁이민정	-11.5158
잡아먹	-11.516
과함께	-11.516
▁다르겠지만	-11.516
▁MC	-11.5161
▁가족끼리	-11.5161
▁심심할때	-11.5162
▁애썼	-11.5162
테이프	-11.5165
▁감동적이었어요	-11.5166
▁치명적	-11.5167
▁아이리스	-11.5168
▁팬이라서	-11.5169
중간중간	-11.518
짝퉁	-11.5181
▁린치	-11.5186
아무것도	-11.5186
허허허	-11.5187
▁미치지	-11.5192
보지마삼	-11.5229
▁망쳐놨	-11.5237
잘생겼다	-11.5241
흥미롭	-11.5292
▁댓글알바	-11.5293
▁잡았	-11.5299
▁억울하	-11.5338
되었지만	-11.5345
었더라면	-11.5355
지마시고	-11.5424
리얼하게	-11.5425
▁실망시키지	-11.5437
▁자랑스럽	-11.5443
▁오그라	-11.546
곁	-11.5468
하시는분들	-11.5473
평점알바	-11.5488
▁못보겠네	-11.5557
쩡	-11.5571
삽	-11.5571
륭	-11.5571
윙	-11.5571
▁천녀유혼	-11.5572
갤	-11.5572
엥	-11.5572
▁로멘틱	-11.5572
▁로버츠	-11.5572
▁선입견	-11.5572
▁윌스미스	-11.5572
▁인피니트	-11.5572
▁중구난방	-11.5572
▁초콜릿	-11.5572
▁카타르시스	-11.5572
꼼	-11.5572
댔	-11.5572
햐	-11.5572
▁맥어보이	-11.5572
▁빈디젤	-11.5572
반지의제왕	-11.5572
▁공효진	-11.5572
▁여실히	-11.5572
▁최진실	-11.5572
▁훼손	-11.5572
\	-11.5572
▁유역비	-11.5572
▁긍정적	-11.5572
▁모니터	-11.5572
▁제레미	-11.5572
잘어울려	-11.5572
밌	-11.6
걱	-11.6005
뭥	-11.6006
늠	-11.6006
뛴	-11.6006
뤘	-11.6006
뤽	-11.6006
몹	-11.6006
셰	-11.6006
얕	-11.6006
핍	-11.6006
깬	-11.6006
쵸	-11.6006
횡	-11.6006
붓	-11.6006
얀	-11.6455
늑	-11.646
힙	-11.6461
뎈	-11.6461
꺅	-11.6461
낰	-11.6461
붐	-11.6461
얌	-11.6461
짬	-11.6461
힝	-11.6461
Q	-11.6461
‘	-11.6461
깽	-11.6461
낱	-11.6461
썅	-11.6461
윗	-11.6461
쟝	-11.6461
뜰	-11.6461
잭	-11.6544
헬	-11.6546
낌	-11.6934
낄	-11.6936
캔	-11.6937
|	-11.6937
됀	-11.6937
“	-11.6937
굼	-11.6937
슌	-11.6937
웁	-11.6937
짭	-11.6937
팜	-11.6937
ᅧ	-11.6937
곸	-11.6937
앳	-11.6937
휼	-11.6937
겜	-11.6937
및	-11.7043
떤	-11.7413
첼	-11.7437
ᅣ	-11.7437
꾀	-11.7437
뱃	-11.7437
젬	-11.7437
乃	-11.7437
뚤	-11.7437
쑈	-11.7437
융	-11.7437
텍	-11.7437
꿉	-11.7437
싯	-11.7437
뵈	-11.7437
냉	-11.7564
맡	-11.757
푹	-11.7571
펙	-11.7955
뷔	-11.7962
댜	-11.7963
얔	-11.7963
빽	-11.7963
빔	-11.7963
샴	-11.7963
섰	-11.7963
돠	-11.7963
쾅	-11.8519
”	-11.8519
→	-11.8519
甲	-11.8519
떴	-11.8519
쁠	-11.8519
쉘	-11.8519
읎	-11.8519
쟤	-11.8519
짚	-11.8519
캣	-11.8519
쿤	-11.8519
땟	-11.8519
욘	-11.8519
욯	-11.8519
퀘	-11.8519
훨	-11.8714
칫	-11.9103
♬	-11.9107
갚	-11.9107
뇬	-11.9107
댁	-11.9107
맬	-11.9107
뭍	-11.9107
뺐	-11.9107
숴	-11.9107
웡	-11.9107
웹	-11.9107
킷	-11.9107
퉷	-11.9107
훤	-11.9107
귄	-11.9107
넉	-11.9107
룻	-11.9107
걔	-11.9107
곧	-11.9339
쩐	-11.9635
켰	-11.9704
꿰	-11.9732
、	-11.9732
됏	-11.9732
젝	-11.9732
괄	-11.9732
뤠	-11.9732
뮬	-11.9732
죵	-11.9732
핰	-11.9732
無	-11.9732
좃	-11.9732
쨔	-11.9732
챔	-11.9732
헛	-12.0002
쏜	-12.0399
첸	-12.0399
겅	-12.0399
믓	-12.0399
뷁	-12.0399
뿅	-12.0399
뿍	-12.0399
쪙	-12.0399
칵	-12.0399
킁	-12.0399
풉	-12.0399
겔	-12.0399
멧	-12.0399
벡	-12.0399
슥	-12.0399
넥	-12.0399
밝	-12.0718
땜	-12.1012
녁	-12.1107
껌	-12.1113
얍	-12.1113
잌	-12.1113
찼	-12.1113
홉	-12.1113
휙	-12.1113
흣	-12.1113
굽	-12.1113
넴	-12.1113
눅	-12.1113
륨	-12.1113
뺑	-12.1113
썹	-12.1113
쒯	-12.1113
잰	-12.1113
쳇	-12.1113
텨	-12.1113
툴	-12.1113
퐁	-12.1113
끽	-12.1113
뒷	-12.1488
탭	-12.1879
슐	-12.1882
』	-12.1882
꼐	-12.1882
꽈	-12.1882
돔	-12.1882
뒹	-12.1882
렜	-12.1882
샵	-12.1882
챈	-12.1882
굶	-12.1882
넛	-12.1882
밸	-12.1882
볶	-12.1882
섀	-12.1882
쫑	-12.1882
춥	-12.1882
넝	-12.1882
깼	-12.1882
끙	-12.2716
『	-12.2716
냔	-12.2716
눕	-12.2716
멱	-12.2716
왁	-12.2716
갯	-12.2716
괸	-12.2716
넨	-12.2716
뎃	-12.2716
벳	-12.2716
뿡	-12.2716
쎈	-12.2716
욥	-12.2716
졷	-12.2716
캄	-12.2716
콱	-12.2716
팰	-12.2716
헿	-12.2716
뻗	-12.2716
퀼	-12.2716
ᄡ	-12.3231
컥	-12.3622
갇	-12.3624
꼇	-12.3624
{	-12.3625
쒸	-12.3625
혓	-12.3625
쑥	-12.3625
줏	-12.3625
컵	-12.3625
}	-12.3625
궤	-12.3625
꺠	-12.3625
뒈	-12.3625
랖	-12.3625
곀	-12.3625
밓	-12.3625
읭	-12.3625
봅	-12.4622
잎	-12.4623
$	-12.4625
닛	-12.4625
死	-12.4625
앰	-12.4625
ᆪ	-12.4625
깟	-12.4625
눔	-12.4625
딛	-12.4625
떵	-12.4625
짰	-12.4625
쨰	-12.4625
쿼	-12.4625
큭	-12.4625
툼	-12.4625
펭	-12.4625
ᄈ	-12.4625
잦	-12.4625
쫘	-12.4625
챤	-12.4625
딥	-12.4625
롹	-12.4625
갘	-12.4625
옛	-12.5335
쫓	-12.5342
뭣	-12.5342
女	-12.5736
♪	-12.5736
빰	-12.5736
쳣	-12.5736
컹	-12.5736
⌒	-12.5736
作	-12.5736
놉	-12.5736
뭄	-12.5736
뺄	-12.5736
읊	-12.5736
팟	-12.5736
쏭	-12.5736
앱	-12.5736
쮸	-12.5736
촬	-12.6981
킵	-12.6983
ン	-12.6986
랔	-12.6986
떙	-12.6986
뽐	-12.6986
옇	-12.6986
쥰	-12.6986
찟	-12.6986
찹	-12.6986
꿇	-12.6986
렙	-12.6986
롸	-12.6986
뤼	-12.6986
뮈	-12.6986
믈	-12.6986
븅	-12.6986
숏	-12.6986
슝	-12.6986
웍	-12.6986
촐	-12.6986
캉	-12.6986
캘	-12.6986
콰	-12.6986
퀵	-12.6986
팥	-12.6986
챦	-12.6986
웜	-12.6986
쨍	-12.6986
냠	-12.6986
밈	-12.8414
퀀	-12.8414
굉	-13.0081
옳	-13.1688
눠	-13.2072
췌	-13.2079
햅	-13.2081
텝	-13.4528
슷	-13.4564
탤	-13.7914
햏	-14.2833
햌	-14.2834
츈	-14.2835
챘	-14.2836
짘	-14.2837
죨	-14.2838
뛸	-14.2839
덟	-14.284
훠	-14.2841
짊	-14.2842
왘	-14.2843
씸	-14.2844
썪	-14.2845
쌉	-14.2846
숟	-14.2847
빴	-14.2848
벚	-14.2849
랗	-14.285
냨	-14.2851
괭	-14.2852
흩	-14.2853
헵	-14.2854
故	-14.2855
쥑	-14.2856
잴	-14.2857
윅	-14.2858
땔	-14.2859
닠	-14.286
놧	-14.2861
뀜	-14.2862
껑	-14.2863
홥	-14.2864
헴	-14.2865
촛	-14.2866
앍	-14.2867
뉜	-14.2868
훑	-14.2869
샛	-14.287
덱	-14.2871
낍	-14.2872
괞	-14.2873
휠	-14.2874
헠	-14.2875
츤	-14.2876
좔	-14.2877
꺾	-14.2878
횟	-14.2879
핥	-14.288
폄	-14.2881
큽	-14.2882
옜	-14.2883
샐	-14.2884
쁩	-14.2885
뀔	-14.2886
휩	-14.2887
큘	-14.2888
콥	-14.2889
촘	-14.289
뺴	-14.2891
멎	-14.2892
핡	-14.2893
뵙	-14.2894
꺽	-14.2895
긁	-14.2896
딪	-14.2897
릎	-14.2898
낡	-14.2899
펏	-14.29
씻	-14.2901
녔	-14.2902
굵	-14.2903
셸	-14.2904
닳	-14.2905
켠	-14.2906
쥔	-14.2907
왼	-14.2908
픕	-14.2909
딨	-14.291
넋	-14.2911
빚	-14.2912
꽥	-14.2913
뀐	-14.2914
뭡	-14.2915
얽	-14.2916
쫒	-14.2917
앓	-14.2918
쨋	-14.2919
텅	-14.292
꽉	-14.2921
붉	-14.2922
땠	-14.2923
멤	-14.2924
둠	-14.2925
밟	-14.2926
홧	-14.2927
틋	-14.2928
뿜	-14.2929
컸	-14.293
뻣	-14.2931
옮	-14.2932
핸	-14.2933
맑	-14.2934
찢	-14.2935
엮	-14.2936
빕	-14.2937
팠	-14.2938
쨌	-14.2939
쫄	-14.294
틸	-14.2941
띄	-14.2942
겪	-14.2943
껐	-14.2944
왤	-14.2945
뻤	-14.2946
쏟	-14.2947
닙	-14.2948
딧	-14.2949
꿔	-14.295
섞	-14.2951
듭	-14.2952
획	-14.2953
겉	-14.2954
쁨	-14.2955
됩	-14.2956
늦	-14.2957
볍	-14.2958
찝	-14.2959
묻	-14.296
똑	-14.2961
랐	-14.2962
깊	-14.2963
떻	-14.2964
렸	-14.2965
렇	-14.2966
봤	-14.2967
